<unk>	0
<s>	0
</s>	0
<pad>	0
<0x00>	0
<0x01>	0
<0x02>	0
<0x03>	0
<0x04>	0
<0x05>	0
<0x06>	0
<0x07>	0
<0x08>	0
<0x09>	0
<0x0A>	0
<0x0B>	0
<0x0C>	0
<0x0D>	0
<0x0E>	0
<0x0F>	0
<0x10>	0
<0x11>	0
<0x12>	0
<0x13>	0
<0x14>	0
<0x15>	0
<0x16>	0
<0x17>	0
<0x18>	0
<0x19>	0
<0x1A>	0
<0x1B>	0
<0x1C>	0
<0x1D>	0
<0x1E>	0
<0x1F>	0
<0x20>	0
<0x21>	0
<0x22>	0
<0x23>	0
<0x24>	0
<0x25>	0
<0x26>	0
<0x27>	0
<0x28>	0
<0x29>	0
<0x2A>	0
<0x2B>	0
<0x2C>	0
<0x2D>	0
<0x2E>	0
<0x2F>	0
<0x30>	0
<0x31>	0
<0x32>	0
<0x33>	0
<0x34>	0
<0x35>	0
<0x36>	0
<0x37>	0
<0x38>	0
<0x39>	0
<0x3A>	0
<0x3B>	0
<0x3C>	0
<0x3D>	0
<0x3E>	0
<0x3F>	0
<0x40>	0
<0x41>	0
<0x42>	0
<0x43>	0
<0x44>	0
<0x45>	0
<0x46>	0
<0x47>	0
<0x48>	0
<0x49>	0
<0x4A>	0
<0x4B>	0
<0x4C>	0
<0x4D>	0
<0x4E>	0
<0x4F>	0
<0x50>	0
<0x51>	0
<0x52>	0
<0x53>	0
<0x54>	0
<0x55>	0
<0x56>	0
<0x57>	0
<0x58>	0
<0x59>	0
<0x5A>	0
<0x5B>	0
<0x5C>	0
<0x5D>	0
<0x5E>	0
<0x5F>	0
<0x60>	0
<0x61>	0
<0x62>	0
<0x63>	0
<0x64>	0
<0x65>	0
<0x66>	0
<0x67>	0
<0x68>	0
<0x69>	0
<0x6A>	0
<0x6B>	0
<0x6C>	0
<0x6D>	0
<0x6E>	0
<0x6F>	0
<0x70>	0
<0x71>	0
<0x72>	0
<0x73>	0
<0x74>	0
<0x75>	0
<0x76>	0
<0x77>	0
<0x78>	0
<0x79>	0
<0x7A>	0
<0x7B>	0
<0x7C>	0
<0x7D>	0
<0x7E>	0
<0x7F>	0
<0x80>	0
<0x81>	0
<0x82>	0
<0x83>	0
<0x84>	0
<0x85>	0
<0x86>	0
<0x87>	0
<0x88>	0
<0x89>	0
<0x8A>	0
<0x8B>	0
<0x8C>	0
<0x8D>	0
<0x8E>	0
<0x8F>	0
<0x90>	0
<0x91>	0
<0x92>	0
<0x93>	0
<0x94>	0
<0x95>	0
<0x96>	0
<0x97>	0
<0x98>	0
<0x99>	0
<0x9A>	0
<0x9B>	0
<0x9C>	0
<0x9D>	0
<0x9E>	0
<0x9F>	0
<0xA0>	0
<0xA1>	0
<0xA2>	0
<0xA3>	0
<0xA4>	0
<0xA5>	0
<0xA6>	0
<0xA7>	0
<0xA8>	0
<0xA9>	0
<0xAA>	0
<0xAB>	0
<0xAC>	0
<0xAD>	0
<0xAE>	0
<0xAF>	0
<0xB0>	0
<0xB1>	0
<0xB2>	0
<0xB3>	0
<0xB4>	0
<0xB5>	0
<0xB6>	0
<0xB7>	0
<0xB8>	0
<0xB9>	0
<0xBA>	0
<0xBB>	0
<0xBC>	0
<0xBD>	0
<0xBE>	0
<0xBF>	0
<0xC0>	0
<0xC1>	0
<0xC2>	0
<0xC3>	0
<0xC4>	0
<0xC5>	0
<0xC6>	0
<0xC7>	0
<0xC8>	0
<0xC9>	0
<0xCA>	0
<0xCB>	0
<0xCC>	0
<0xCD>	0
<0xCE>	0
<0xCF>	0
<0xD0>	0
<0xD1>	0
<0xD2>	0
<0xD3>	0
<0xD4>	0
<0xD5>	0
<0xD6>	0
<0xD7>	0
<0xD8>	0
<0xD9>	0
<0xDA>	0
<0xDB>	0
<0xDC>	0
<0xDD>	0
<0xDE>	0
<0xDF>	0
<0xE0>	0
<0xE1>	0
<0xE2>	0
<0xE3>	0
<0xE4>	0
<0xE5>	0
<0xE6>	0
<0xE7>	0
<0xE8>	0
<0xE9>	0
<0xEA>	0
<0xEB>	0
<0xEC>	0
<0xED>	0
<0xEE>	0
<0xEF>	0
<0xF0>	0
<0xF1>	0
<0xF2>	0
<0xF3>	0
<0xF4>	0
<0xF5>	0
<0xF6>	0
<0xF7>	0
<0xF8>	0
<0xF9>	0
<0xFA>	0
<0xFB>	0
<0xFC>	0
<0xFD>	0
<0xFE>	0
<0xFF>	0
,	-2.69642
:	-3.34353
.	-3.61401
▁the	-3.97413
'	-3.99676
▁I	-4.0002
▁to	-4.25599
▁and	-4.35402
s	-4.35701
;	-4.39023
▁of	-4.47544
▁you	-4.62463
▁a	-4.6626
▁my	-4.69128
▁	-4.70507
?	-4.78202
▁in	-4.88558
!	-4.92015
▁that	-4.99052
▁And	-5.02074
d	-5.02428
▁not	-5.02642
▁is	-5.03413
▁me	-5.09773
▁be	-5.16167
▁it	-5.2101
▁with	-5.21509
▁your	-5.26775
▁for	-5.29316
▁his	-5.32425
▁have	-5.38026
▁he	-5.40476
▁this	-5.4364
▁him	-5.49257
▁thou	-5.49855
-	-5.66367
▁as	-5.67312
▁so	-5.71329
▁will	-5.7171
▁thy	-5.72534
▁but	-5.77956
▁The	-5.81416
▁To	-5.86233
▁all	-5.88985
▁O	-5.90492
▁her	-5.91375
O	-5.92294
ing	-5.94748
▁'	-5.95694
▁by	-5.96915
▁we	-5.97134
▁shall	-5.97273
▁thee	-5.97771
▁do	-5.98429
▁are	-6.01281
▁our	-6.02465
IO	-6.02914
▁no	-6.04997
▁That	-6.07608
▁what	-6.10618
▁on	-6.11737
ll	-6.14397
▁A	-6.15885
▁But	-6.17638
▁good	-6.2378
▁What	-6.25693
KING	-6.26477
▁from	-6.30641
t	-6.31971
▁more	-6.33927
▁if	-6.37528
▁now	-6.37932
▁B	-6.38416
▁For	-6.38589
▁at	-6.39449
▁sir	-6.39795
er	-6.40579
▁was	-6.41404
▁lord	-6.41508
▁them	-6.42429
▁would	-6.44183
▁she	-6.47152
▁their	-6.47655
▁am	-6.48234
ed	-6.48842
▁they	-6.505
▁My	-6.50596
▁here	-6.51365
▁S	-6.52908
▁love	-6.52955
st	-6.53798
▁say	-6.57304
▁us	-6.57507
▁or	-6.58408
▁come	-6.58434
▁then	-6.58446
IUS	-6.62773
▁well	-6.62862
▁man	-6.6306
▁one	-6.64661
▁As	-6.65064
▁king	-6.6514
▁hath	-6.65332
▁let	-6.66153
▁make	-6.66315
▁know	-6.66504
▁may	-6.68094
ly	-6.70208
▁You	-6.71183
▁G	-6.71725
▁were	-6.72385
R	-6.72716
▁must	-6.74261
▁than	-6.74796
Y	-6.75244
ET	-6.75575
▁C	-6.763
▁should	-6.77566
▁like	-6.77764
▁upon	-6.78668
▁father	-6.79191
▁there	-6.79535
▁an	-6.81042
▁He	-6.82713
▁had	-6.85272
▁which	-6.85924
▁death	-6.86601
▁go	-6.86941
▁If	-6.87119
▁VI	-6.88141
▁see	-6.88305
US	-6.88379
NCE	-6.90789
▁did	-6.90805
e	-6.91131
▁DUKE	-6.9192
▁how	-6.91999
y	-6.92552
▁yet	-6.93358
▁too	-6.94067
▁up	-6.94811
▁RICHARD	-6.95812
F	-6.96534
▁speak	-6.96727
▁Which	-6.97261
▁when	-6.97278
▁out	-6.97773
▁some	-6.97777
▁With	-6.98175
n	-6.98637
▁mine	-6.99143
▁time	-7.01187
▁Why	-7.02167
LO	-7.02902
▁God	-7.03733
▁such	-7.04079
▁First	-7.04461
▁M	-7.06362
▁give	-7.07332
▁these	-7.07806
S	-7.07955
▁No	-7.09344
▁heart	-7.10328
▁can	-7.10827
▁son	-7.10949
▁take	-7.11463
▁In	-7.11661
▁So	-7.1193
▁life	-7.12223
▁P	-7.12478
▁How	-7.12643
▁Of	-7.131
RY	-7.13169
▁Come	-7.14358
▁This	-7.14482
▁brother	-7.15043
▁tell	-7.16385
▁hear	-7.16613
--	-7.18077
▁Thou	-7.18267
▁We	-7.18617
▁Who	-7.19848
▁QUEEN	-7.21094
▁think	-7.21656
▁most	-7.22633
▁much	-7.22998
▁Lord	-7.24298
ABE	-7.24387
▁made	-7.24875
▁R	-7.25082
I	-7.25497
▁art	-7.26002
tis	-7.26336
ES	-7.26671
▁Now	-7.26859
HEN	-7.27658
▁T	-7.29012
▁o	-7.30157
▁never	-7.30856
th	-7.3199
▁men	-7.33521
▁blood	-7.34703
▁fair	-7.34906
▁Your	-7.35304
▁any	-7.35984
▁true	-7.36825
▁day	-7.36958
▁F	-7.3701
▁Or	-7.37261
▁name	-7.37689
▁cannot	-7.3774
▁where	-7.38208
▁Where	-7.38265
▁hand	-7.38948
▁Y	-7.39037
IN	-7.39744
▁PET	-7.3988
▁been	-7.40382
▁EDWARD	-7.41058
A	-7.41965
▁honour	-7.41988
▁doth	-7.42573
▁again	-7.4265
▁own	-7.43738
▁noble	-7.43828
▁LUC	-7.4396
▁done	-7.44605
EN	-7.44715
▁LA	-7.4497
▁look	-7.47885
▁When	-7.47998
▁It	-7.48978
▁who	-7.49179
▁Edward	-7.49322
▁very	-7.49407
,--	-7.49502
▁world	-7.4994
▁both	-7.4995
▁before	-7.49998
▁Ay	-7.50041
▁Is	-7.50513
▁By	-7.50987
▁Be	-7.51299
RK	-7.51521
▁Let	-7.51575
TH	-7.52031
▁queen	-7.52102
▁way	-7.52295
▁great	-7.52889
▁sweet	-7.52927
▁Then	-7.5334
▁call	-7.54335
▁nor	-7.54837
▁myself	-7.55731
B	-7.55846
▁leave	-7.55946
▁fear	-7.56512
▁night	-7.56643
▁being	-7.57202
OME	-7.57255
▁un	-7.57661
▁CORIOLANUS	-7.57663
▁thus	-7.57738
N	-7.57859
▁AN	-7.59203
▁AU	-7.59301
▁other	-7.60283
▁eyes	-7.60343
▁down	-7.60404
UCH	-7.61081
▁heaven	-7.61361
ER	-7.61381
▁grace	-7.61485
▁old	-7.61604
C	-7.61798
▁hast	-7.6187
▁live	-7.61906
▁LE	-7.62347
econd	-7.62399
▁mother	-7.62862
UM	-7.6293
AP	-7.63744
▁wife	-7.63924
ULI	-7.64358
▁Go	-7.65091
▁poor	-7.65288
UL	-7.65463
NTI	-7.65619
▁die	-7.66043
▁away	-7.66106
▁bear	-7.66214
▁head	-7.66615
▁dead	-7.66727
▁Than	-7.66783
▁ever	-7.66926
▁Do	-7.66986
D	-7.68369
STE	-7.68621
▁many	-7.69366
MENE	-7.69598
▁J	-7.69927
▁friends	-7.70428
▁Warwick	-7.70509
▁pray	-7.7074
▁comes	-7.71195
▁His	-7.71391
▁stay	-7.71744
Tis	-7.72017
▁daughter	-7.73286
▁soul	-7.7329
▁word	-7.73399
▁nothing	-7.74281
▁stand	-7.75238
▁Romeo	-7.75283
INA	-7.75531
▁Well	-7.75535
▁Here	-7.75616
▁house	-7.76036
▁better	-7.76055
▁Nay	-7.7676
▁gone	-7.76867
RAN	-7.76916
MIO	-7.76919
NT	-7.78093
II	-7.78521
VOL	-7.7956
▁news	-7.80771
UC	-7.80942
▁off	-7.81089
▁crown	-7.81403
▁against	-7.81461
▁those	-7.81786
▁little	-7.82598
WI	-7.8297
▁EL	-7.83083
▁Not	-7.83261
▁thing	-7.83347
▁long	-7.83776
▁There	-7.84145
▁face	-7.84523
M	-7.84605
▁two	-7.85149
▁Citizen	-7.8541
▁E	-7.85459
re	-7.85882
▁still	-7.8611
▁hence	-7.86156
▁Sir	-7.86163
▁GRE	-7.86178
▁himself	-7.87021
▁set	-7.88182
▁rest	-7.88359
▁Richard	-7.88795
▁II	-7.88969
▁MAR	-7.8949
▁therefore	-7.89732
▁peace	-7.89747
▁unto	-7.89786
▁hope	-7.90073
▁part	-7.90075
▁duke	-7.90479
▁first	-7.90638
NG	-7.90691
▁put	-7.90781
IV	-7.90982
ON	-7.91015
▁Have	-7.91678
▁till	-7.91772
▁though	-7.92363
▁tongue	-7.92371
▁Thy	-7.92629
EL	-7.92719
▁York	-7.93462
▁words	-7.93898
▁else	-7.94423
ONT	-7.94424
▁thine	-7.94512
OLI	-7.94568
▁power	-7.95271
▁home	-7.95627
▁might	-7.95872
▁Henry	-7.96378
▁Yet	-7.96429
NE	-7.96649
▁could	-7.97219
▁Good	-7.97462
▁earth	-7.9836
▁lady	-7.98404
▁back	-7.9842
▁best	-7.98725
KE	-7.9875
CK	-7.98822
▁Will	-7.99452
▁people	-7.99455
▁She	-7.99602
▁keep	-7.99937
▁H	-8.0022
▁Shall	-8.00443
▁master	-8.00458
UCE	-8.0053
WAR	-8.0059
L	-8.01315
▁husband	-8.01365
ASTI	-8.01541
▁young	-8.01631
r	-8.01954
▁cause	-8.01965
▁bid	-8.02185
▁prince	-8.02228
RUT	-8.02432
▁Nurse	-8.02499
▁why	-8.02563
m	-8.02579
est	-8.02994
▁mean	-8.03139
▁dear	-8.03171
IC	-8.03214
▁All	-8.03408
LOU	-8.03496
▁said	-8.03556
▁once	-8.0366
▁none	-8.03664
▁forth	-8.03958
GE	-8.04128
en	-8.04423
▁every	-8.04789
▁They	-8.04852
▁show	-8.04887
▁find	-8.0526
▁gentle	-8.05494
▁hands	-8.06428
▁Rome	-8.06645
LY	-8.06665
▁Ha	-8.0729
▁lords	-8.08039
▁bring	-8.08689
▁whose	-8.1014
▁war	-8.1016
▁need	-8.10352
▁tears	-8.10378
▁right	-8.10954
less	-8.11167
▁mind	-8.11198
▁since	-8.11222
▁thought	-8.11724
▁King	-8.12429
GAR	-8.12847
▁place	-8.12896
▁came	-8.13183
▁shame	-8.13528
▁PA	-8.13814
▁heard	-8.14128
▁Our	-8.14253
▁state	-8.14786
▁help	-8.14813
▁eye	-8.14988
▁answer	-8.15771
▁kill	-8.1597
▁pardon	-8.16246
▁i	-8.16833
▁last	-8.16906
▁friend	-8.17103
▁whom	-8.1723
▁ere	-8.17383
▁full	-8.1818
▁KAT	-8.18317
▁Nor	-8.18619
NI	-8.18914
▁Clarence	-8.19592
HAR	-8.19614
▁hither	-8.19674
▁about	-8.19682
es	-8.20083
LE	-8.20313
▁royal	-8.208
▁Marcius	-8.20807
▁gentleman	-8.20832
▁prove	-8.20939
▁boy	-8.21085
AMILL	-8.21274
▁thousand	-8.22235
▁cousin	-8.22265
CAL	-8.22453
▁into	-8.2302
▁gracious	-8.23452
EST	-8.23777
▁please	-8.24047
ous	-8.2424
HA	-8.24379
▁child	-8.2474
▁sorrow	-8.24928
▁sun	-8.25328
l	-8.2549
▁lie	-8.25582
TES	-8.25694
▁far	-8.25976
▁Duke	-8.26179
▁new	-8.26345
▁DUCHESS	-8.27302
▁wilt	-8.27355
▁meet	-8.27383
▁makes	-8.27821
▁less	-8.27833
▁grave	-8.28039
▁body	-8.28657
▁woman	-8.28713
▁dost	-8.28779
▁hour	-8.29027
▁Angelo	-8.30022
▁comfort	-8.30151
▁talk	-8.31416
▁after	-8.31426
▁indeed	-8.31435
▁another	-8.31437
▁joy	-8.31578
▁light	-8.3178
▁fellow	-8.31876
E	-8.3271
▁Provost	-8.3282
▁Would	-8.32845
▁end	-8.33026
▁grief	-8.33116
▁fortune	-8.33136
▁use	-8.33404
ERC	-8.33427
▁even	-8.34043
▁has	-8.34072
▁HORTENSI	-8.34249
▁L	-8.34363
▁fall	-8.34776
▁hate	-8.352
▁Upon	-8.35696
AN	-8.35988
morrow	-8.36046
▁hold	-8.3607
LA	-8.36533
▁rather	-8.3717
▁Eve	-8.37403
▁years	-8.37558
BR	-8.37968
ROS	-8.3846
▁sea	-8.38481
▁business	-8.38661
▁truth	-8.38692
▁Give	-8.38776
ENT	-8.38882
▁matter	-8.39066
▁three	-8.39151
TO	-8.39259
or	-8.3969
▁Third	-8.40172
▁shalt	-8.40211
▁More	-8.40251
▁thank	-8.40592
▁Take	-8.40851
▁only	-8.4105
▁lies	-8.4121
▁D	-8.41313
▁wish	-8.41505
ness	-8.41744
UT	-8.41768
▁kind	-8.42008
▁welcome	-8.4212
▁play	-8.42184
▁arms	-8.42689
▁NOR	-8.43284
▁wrong	-8.4359
ful	-8.43599
▁Kate	-8.43678
▁lay	-8.43892
▁law	-8.44046
▁follow	-8.44742
▁enough	-8.44862
▁high	-8.44867
▁pity	-8.4488
▁holy	-8.44986
▁proud	-8.45042
▁fight	-8.45103
day	-8.45196
▁CLA	-8.45854
▁V	-8.45996
▁CA	-8.46221
▁Murder	-8.46634
▁over	-8.46946
▁nature	-8.46946
▁bed	-8.4725
in	-8.47659
PER	-8.47743
▁present	-8.48033
▁Servant	-8.48114
▁seem	-8.4817
▁foul	-8.48207
▁sleep	-8.48258
▁Were	-8.48362
an	-8.4838
▁gods	-8.4847
▁lives	-8.48672
AND	-8.4891
▁Clow	-8.49422
▁sovereign	-8.49777
▁mistress	-8.49781
▁POMP	-8.49784
▁saw	-8.49799
▁happy	-8.49809
▁madam	-8.49832
▁within	-8.49994
▁Was	-8.50118
▁swear	-8.50165
CE	-8.50417
▁land	-8.50529
▁get	-8.51019
▁false	-8.51372
▁beseech	-8.51475
▁city	-8.51556
▁things	-8.51871
▁send	-8.52523
▁country	-8.5317
▁Look	-8.53251
▁means	-8.53304
▁Say	-8.53353
▁turn	-8.53496
▁late	-8.53706
▁while	-8.53953
▁fire	-8.54005
▁horse	-8.54034
▁breath	-8.54601
▁doubt	-8.54763
▁England	-8.54953
▁Servi	-8.5497
▁BI	-8.54991
▁yourself	-8.55049
▁ne	-8.55298
IS	-8.55305
▁bloody	-8.55424
▁traitor	-8.55602
▁At	-8.56084
▁An	-8.56241
ngman	-8.56693
▁sister	-8.56742
▁villain	-8.5745
a	-8.58007
▁save	-8.58036
▁looks	-8.5821
▁children	-8.58559
▁Did	-8.5858
OM	-8.5859
RE	-8.58621
URE	-8.58816
▁May	-8.59123
▁Her	-8.59253
▁sword	-8.59299
▁break	-8.5936
▁majesty	-8.60409
▁Therefore	-8.60421
▁left	-8.6054
▁Tybalt	-8.60559
▁Though	-8.60608
▁arm	-8.60824
▁mad	-8.61008
▁Ah	-8.61039
▁uncle	-8.61109
▁maid	-8.61412
AR	-8.61517
STA	-8.61896
▁On	-8.6226
CLIFF	-8.62265
GON	-8.62997
▁seen	-8.63262
LL	-8.63346
▁told	-8.63854
▁farewell	-8.6427
▁mercy	-8.64275
▁does	-8.64968
OND	-8.64982
▁Can	-8.65177
▁kiss	-8.65917
▁sit	-8.65939
▁heavy	-8.66185
▁marry	-8.66257
TI	-8.66259
▁W	-8.66291
▁gold	-8.66337
▁days	-8.6634
▁together	-8.66401
▁without	-8.66427
gainst	-8.66765
▁pass	-8.6692
▁warrant	-8.67032
▁care	-8.67033
▁believe	-8.67558
▁Clifford	-8.68178
▁PRINCE	-8.68179
▁purpose	-8.68257
▁lost	-8.6829
▁sound	-8.6874
▁spirit	-8.69077
▁oath	-8.69179
▁woe	-8.6943
▁t	-8.69497
▁ears	-8.69753
▁Had	-8.69852
▁strange	-8.69869
▁Bolingbroke	-8.7022
▁liege	-8.70221
▁thyself	-8.70283
▁Tell	-8.70425
▁Some	-8.70451
▁pluck	-8.7063
K	-8.70734
▁weep	-8.7099
▁common	-8.71167
▁nurse	-8.71697
▁person	-8.71792
ORD	-8.72216
▁through	-8.72225
▁age	-8.7226
▁sin	-8.72278
▁Juliet	-8.72298
▁Should	-8.72301
▁Away	-8.72333
▁Signior	-8.72357
▁haste	-8.72686
OL	-8.72801
▁One	-8.7289
▁justice	-8.73201
▁reason	-8.73377
▁free	-8.73854
▁faith	-8.74255
▁remember	-8.74282
▁desire	-8.74346
▁report	-8.74347
▁friar	-8.74425
▁Farewell	-8.74486
▁ground	-8.74539
▁deep	-8.74613
man	-8.74615
▁fly	-8.74636
▁court	-8.75377
▁fault	-8.75465
▁content	-8.75475
▁dream	-8.75512
▁service	-8.75513
▁air	-8.75665
▁sight	-8.75777
▁touch	-8.76186
▁near	-8.7642
▁times	-8.76468
▁banish	-8.76474
RIA	-8.76476
▁ill	-8.76542
▁Like	-8.76597
▁straight	-8.76602
▁France	-8.76605
▁loss	-8.76607
▁slain	-8.76609
▁general	-8.76661
▁Pray	-8.76661
ill	-8.76668
▁foot	-8.76693
▁soon	-8.76765
▁cold	-8.76793
▁Fro	-8.76979
▁return	-8.77464
▁command	-8.77504
AM	-8.78035
▁tender	-8.78784
▁beauty	-8.78822
▁alone	-8.78826
RI	-8.78843
▁sent	-8.78878
▁under	-8.78899
▁married	-8.78948
▁revenge	-8.79255
▁These	-8.79302
▁ask	-8.79321
▁worthy	-8.79333
essenger	-8.7939
IAN	-8.8032
▁yours	-8.80793
▁Claudio	-8.81095
▁brought	-8.81098
▁enemy	-8.81152
TA	-8.81252
▁ready	-8.81252
▁born	-8.81383
▁charge	-8.81595
▁sure	-8.8171
▁says	-8.81903
▁fool	-8.82039
o	-8.82176
▁Senator	-8.82202
▁mark	-8.8244
▁s	-8.82784
▁open	-8.83359
▁duty	-8.83417
▁found	-8.83464
▁itself	-8.83536
▁lose	-8.83561
▁past	-8.83618
▁See	-8.83704
▁Make	-8.83801
▁canst	-8.84217
se	-8.84259
ld	-8.84321
▁Master	-8.84613
▁Montague	-8.84619
▁deed	-8.84952
us	-8.85108
▁hours	-8.85322
T	-8.85455
▁prison	-8.85651
▁cry	-8.85694
▁thoughts	-8.85754
▁MARCIUS	-8.858
▁Shepherd	-8.85801
▁SE	-8.85859
▁Madam	-8.85861
▁twenty	-8.85928
▁fearful	-8.86048
▁wear	-8.86262
ALO	-8.86784
▁widow	-8.87147
RU	-8.8736
▁seek	-8.88191
▁Camillo	-8.88239
▁marriage	-8.88239
▁half	-8.8825
▁ye	-8.8836
▁work	-8.88689
▁ear	-8.88977
▁beat	-8.88991
▁stands	-8.89168
ion	-8.89391
ING	-8.89625
▁fast	-8.89813
▁strike	-8.89868
▁change	-8.90206
▁re	-8.90266
▁ha	-8.90272
MER	-8.90572
▁Gloucester	-8.90739
▁Buckingham	-8.9074
▁Hastings	-8.90764
eth	-8.90864
▁each	-8.90899
▁bound	-8.90959
▁curse	-8.91505
▁serve	-8.91553
INCE	-8.91572
▁heir	-8.91722
ies	-8.91761
▁yield	-8.91764
BER	-8.91828
▁field	-8.92117
▁tale	-8.92143
▁point	-8.92237
▁known	-8.92294
▁side	-8.92701
▁course	-8.92845
▁sad	-8.93001
▁honest	-8.9305
▁ho	-8.93273
▁Norfolk	-8.93302
▁highness	-8.93329
▁company	-8.9334
▁something	-8.93342
▁knows	-8.93344
▁women	-8.93376
▁Thus	-8.93503
▁cut	-8.93855
▁voices	-8.94181
TIS	-8.94262
CA	-8.94451
▁trust	-8.94731
▁worse	-8.95108
▁learn	-8.95432
▁strength	-8.95793
▁deliver	-8.95833
▁hell	-8.95914
▁MI	-8.95929
▁knew	-8.95929
▁Lucentio	-8.95934
▁gentlemen	-8.95953
▁sake	-8.96087
rom	-8.96088
▁loving	-8.96099
night	-8.96946
▁didst	-8.97052
▁run	-8.97312
▁counsel	-8.97334
▁pleasure	-8.97411
▁rich	-8.97691
▁ten	-8.97942
▁brave	-8.98276
▁watch	-8.98468
ELL	-8.98552
▁enemies	-8.98635
▁Lancaster	-8.98636
▁Marry	-8.98645
▁become	-8.98995
▁c	-8.99525
▁dare	-8.99548
▁hearts	-8.9968
▁devil	-9.00213
▁heavens	-9.00228
▁title	-9.00252
uch	-9.00334
▁water	-9.00681
▁wind	-9.0071
ID	-9.01393
▁Lady	-9.01408
▁battle	-9.01409
▁Bianca	-9.01412
▁next	-9.01416
▁pale	-9.01525
▁coming	-9.01606
▁HER	-9.01772
▁gates	-9.01778
▁withal	-9.02236
▁wit	-9.02392
▁Un	-9.02424
▁bosom	-9.03077
▁draw	-9.03125
▁read	-9.03155
DIO	-9.03286
ST	-9.03427
▁thanks	-9.03508
▁themselves	-9.04273
▁patience	-9.04275
▁gave	-9.04281
▁either	-9.04346
▁jest	-9.04356
▁hang	-9.04569
OR	-9.04655
▁lips	-9.04815
▁confess	-9.04848
▁issue	-9.05283
▁souls	-9.05408
▁GR	-9.0561
▁murder	-9.05644
P	-9.05844
▁virtue	-9.06055
able	-9.0636
▁order	-9.07162
▁foe	-9.07206
▁Tranio	-9.07208
▁Aufidius	-9.0721
▁Since	-9.0721
▁Petruchio	-9.0721
▁further	-9.07217
▁LORD	-9.07247
▁forget	-9.07267
▁sworn	-9.07315
▁merry	-9.07339
twere	-9.07358
▁took	-9.07426
▁along	-9.07431
▁Call	-9.0744
twas	-9.07493
ward	-9.07689
DA	-9.07697
▁attend	-9.07731
▁speed	-9.07904
BRA	-9.07953
MEN	-9.07998
▁youth	-9.08013
▁same	-9.08136
▁close	-9.08154
▁office	-9.08933
▁subject	-9.09099
on	-9.0985
▁strong	-9.09993
▁JOHN	-9.10234
▁request	-9.10238
▁Hereford	-9.10243
▁already	-9.10254
▁morning	-9.10288
▁often	-9.10396
▁Alas	-9.10415
ERDI	-9.10522
AU	-9.10527
▁hard	-9.10621
▁throw	-9.10981
like	-9.1114
▁self	-9.11297
▁given	-9.11438
▁woo	-9.11618
▁enter	-9.11883
▁want	-9.12056
▁harm	-9.12154
▁suit	-9.12202
▁promise	-9.12835
▁bold	-9.13124
▁Speak	-9.13362
▁Richmond	-9.13364
▁between	-9.13373
▁neither	-9.13376
▁Before	-9.13383
▁Tower	-9.13392
▁goes	-9.13442
▁case	-9.13685
▁bad	-9.13744
▁wounds	-9.13828
AD	-9.14016
▁Yes	-9.14116
▁soldiers	-9.14224
▁met	-9.14337
RO	-9.14889
▁entreat	-9.149
▁wonder	-9.15101
▁grant	-9.15118
ixt	-9.15164
h	-9.15194
▁worth	-9.15665
▁quarrel	-9.16299
▁spoke	-9.16454
OP	-9.16467
▁just	-9.16492
▁dangerous	-9.16492
▁speech	-9.16529
▁presence	-9.16589
▁Because	-9.16592
▁Must	-9.16614
▁Unless	-9.16616
▁Welcome	-9.16673
▁having	-9.16712
▁thence	-9.1766
▁feel	-9.18178
▁Th	-9.18257
▁consent	-9.18443
al	-9.18581
▁worship	-9.1867
▁consul	-9.187
▁mock	-9.18804
▁voice	-9.18865
VER	-9.19291
▁appear	-9.19338
▁fit	-9.1962
▁begin	-9.19688
ers	-9.19825
▁black	-9.19914
▁London	-9.19919
▁throne	-9.1992
▁deny	-9.19948
▁poison	-9.19956
▁Margaret	-9.20009
▁Saint	-9.20012
▁Both	-9.20028
▁Keep	-9.20045
▁offence	-9.20063
▁Coriolanus	-9.20103
▁rage	-9.20397
▁mighty	-9.20405
em	-9.21317
▁win	-9.21441
▁wise	-9.21506
▁FR	-9.21775
▁move	-9.21834
SH	-9.21912
▁sons	-9.22054
▁behold	-9.22077
▁seems	-9.22189
▁breast	-9.22287
▁vow	-9.22354
▁hot	-9.22694
▁wars	-9.2322
BALT	-9.23346
▁George	-9.23367
▁Paris	-9.23367
▁Baptista	-9.2337
▁ancient	-9.23376
▁buy	-9.23444
▁Lest	-9.23553
▁Ere	-9.23654
▁princely	-9.23657
▁bawd	-9.23889
▁prayers	-9.24008
▁loves	-9.24543
▁deeds	-9.24996
▁wash	-9.25071
▁Roman	-9.25794
▁moon	-9.26091
▁brief	-9.26838
▁pay	-9.26936
▁flesh	-9.26936
▁valiant	-9.26938
▁fetch	-9.26943
▁Stand	-9.27066
▁presently	-9.27128
▁soft	-9.27162
▁plain	-9.27509
LI	-9.27768
▁offer	-9.27941
AG	-9.28387
H	-9.29023
le	-9.29323
▁loved	-9.29446
▁slave	-9.29571
▁post	-9.29688
▁SI	-9.30331
▁suffer	-9.30418
▁Oxford	-9.3064
▁prithee	-9.30642
▁Hortensio	-9.30643
▁slaughter	-9.3065
▁least	-9.30684
UE	-9.30694
▁cross	-9.30708
▁fresh	-9.30712
▁walk	-9.30738
▁Think	-9.30793
▁tribunes	-9.308
▁base	-9.30971
▁ta	-9.31229
▁forward	-9.31314
ir	-9.31354
▁dis	-9.3156
rt	-9.31681
▁TY	-9.31769
▁lack	-9.31847
ry	-9.32017
▁heads	-9.32505
▁faults	-9.32617
▁grow	-9.32833
▁mortal	-9.33148
▁kingdom	-9.33148
age	-9.33434
▁chance	-9.33475
▁defend	-9.33503
it	-9.33639
▁hide	-9.33891
▁kings	-9.344
▁Pompey	-9.34485
▁Bohemia	-9.34486
▁Katharina	-9.34488
▁Northumberland	-9.34489
▁pretty	-9.34495
▁whence	-9.3458
▁Hark	-9.34589
▁thither	-9.34608
▁almost	-9.34624
▁fie	-9.34658
▁dishonour	-9.34901
▁nay	-9.35088
at	-9.35722
▁got	-9.35727
OW	-9.35918
▁subjects	-9.35959
ILI	-9.36693
▁weak	-9.37999
▁short	-9.38331
▁patient	-9.38391
RG	-9.38475
▁cheer	-9.38482
▁Sweet	-9.38483
▁virtuous	-9.38486
▁living	-9.38506
▁ANT	-9.38507
▁safe	-9.3854
▁quickly	-9.38549
▁Peace	-9.38586
▁chamber	-9.38588
▁slander	-9.38589
▁neck	-9.38606
▁awhile	-9.38615
▁certain	-9.3875
▁tear	-9.38795
▁wert	-9.38907
▁Hold	-9.38923
▁match	-9.3893
▁glad	-9.39009
▁toward	-9.39019
▁beg	-9.39486
▁march	-9.39826
▁fill	-9.40196
▁hadst	-9.40285
▁usurp	-9.40423
▁goodly	-9.40509
▁hearing	-9.40534
▁visit	-9.41058
▁blow	-9.41081
▁feast	-9.4124
▁knee	-9.4127
W	-9.41345
▁frown	-9.41562
▁soldier	-9.41614
▁knock	-9.41619
▁b	-9.41701
▁year	-9.41789
▁piece	-9.41822
▁mouth	-9.41822
▁book	-9.41834
▁town	-9.42276
▁music	-9.4242
ity	-9.42578
▁angry	-9.42633
▁witness	-9.42634
▁womb	-9.42634
▁slew	-9.42649
▁Isabel	-9.42649
▁four	-9.42679
▁guilty	-9.42719
▁lawful	-9.42769
▁worst	-9.42776
▁measure	-9.42779
RIS	-9.42842
▁kneel	-9.4285
▁Stay	-9.42905
▁Yea	-9.4294
▁weeping	-9.43077
▁deserved	-9.43124
▁flatter	-9.43284
▁greater	-9.43661
▁blows	-9.4377
▁RO	-9.44095
ther	-9.4428
IA	-9.44665
▁stir	-9.45268
▁treason	-9.45329
▁shepherd	-9.45728
PS	-9.45772
▁sense	-9.45784
▁While	-9.45813
▁letter	-9.4592
▁servant	-9.45936
to	-9.45989
▁prisoner	-9.46038
NA	-9.46501
▁e	-9.46539
!'	-9.46818
▁labour	-9.46835
▁sudden	-9.46888
▁Gremio	-9.46981
▁Grumio	-9.46981
▁Padua	-9.46981
▁liberty	-9.46981
▁join	-9.46982
▁behind	-9.46984
▁ladies	-9.46985
▁Plantagenet	-9.47
w	-9.47004
▁Watch	-9.47029
▁because	-9.47047
▁won	-9.47055
▁ourselves	-9.47057
▁perform	-9.47065
▁steel	-9.47117
▁banishment	-9.47123
▁five	-9.47143
▁noise	-9.47148
▁fled	-9.47153
▁dance	-9.47155
▁clouds	-9.47225
▁breathe	-9.47281
▁Out	-9.47355
▁sick	-9.47496
▁warm	-9.47651
▁dog	-9.47824
▁letters	-9.48138
▁rough	-9.4825
▁scorn	-9.48864
▁wast	-9.4889
▁p	-9.49215
▁act	-9.5001
▁drink	-9.50014
▁wouldst	-9.50037
▁birth	-9.50262
▁secret	-9.50329
▁remain	-9.50372
▁fine	-9.50401
▁action	-9.50455
ling	-9.50461
AB	-9.51007
as	-9.51201
▁seat	-9.51294
▁bitter	-9.51397
▁leisure	-9.51414
▁stop	-9.51525
▁hundred	-9.51526
▁dispatch	-9.51526
▁proclaim	-9.51527
▁Gaunt	-9.5153
▁vain	-9.51534
▁laid	-9.51535
▁victory	-9.51554
▁choose	-9.51554
▁bride	-9.51556
▁summer	-9.51581
▁obey	-9.51613
▁Fear	-9.51615
▁shows	-9.51631
▁above	-9.51631
▁dry	-9.51641
▁Sirrah	-9.51657
▁conscience	-9.51661
▁bones	-9.51665
▁broke	-9.51739
▁favour	-9.51808
▁Unto	-9.51827
▁judge	-9.51853
▁quiet	-9.51883
▁white	-9.51911
▁aside	-9.52071
▁longer	-9.52317
▁seal	-9.52393
AT	-9.52673
ither	-9.52759
out	-9.5335
▁CL	-9.53377
▁held	-9.53445
▁sour	-9.53579
ave	-9.53899
ation	-9.53963
▁sort	-9.5438
▁encounter	-9.54919
▁danger	-9.54964
▁forbid	-9.55054
▁stain	-9.55118
▁m	-9.55412
▁second	-9.55631
▁lived	-9.55818
▁seven	-9.55876
▁dark	-9.56213
.'	-9.56229
▁small	-9.56264
▁Catesby	-9.56288
▁kinsman	-9.56288
▁precious	-9.56288
▁pride	-9.56292
▁yourselves	-9.56302
▁desperate	-9.56304
▁knowledge	-9.56315
▁glory	-9.56315
▁swift	-9.56319
▁forgot	-9.56349
▁citizens	-9.5638
▁stood	-9.56428
▁blessed	-9.56428
▁Too	-9.56786
▁hap	-9.57158
▁Gentlem	-9.57408
▁knees	-9.57638
▁Mo	-9.57663
▁Hear	-9.577
▁towards	-9.57831
TON	-9.58231
▁shake	-9.58294
▁pain	-9.58426
▁BU	-9.58631
UR	-9.58726
ould	-9.58827
▁co	-9.58852
▁woes	-9.5886
GO	-9.58985
▁form	-9.59119
▁humble	-9.59197
▁lands	-9.59393
g	-9.59754
▁DOR	-9.5985
▁doom	-9.60176
▁d	-9.60267
▁lead	-9.60325
▁manner	-9.60351
▁morrow	-9.60575
▁speaks	-9.60856
▁bless	-9.61104
▁Aumerle	-9.61288
▁John	-9.61288
▁Mowbray	-9.61288
▁cruel	-9.61288
▁kept	-9.61288
▁money	-9.61289
▁guess	-9.61291
▁struck	-9.61292
▁fought	-9.6131
▁few	-9.61312
▁idle	-9.61333
▁methinks	-9.61348
▁fruit	-9.61423
▁lordship	-9.61482
▁English	-9.61525
▁alive	-9.61635
▁g	-9.61671
▁army	-9.61705
▁deadly	-9.61898
▁CO	-9.62038
▁cheeks	-9.62153
▁flowers	-9.62275
▁promised	-9.62325
▁wretch	-9.62686
▁doing	-9.62727
ight	-9.63052
▁trouble	-9.63172
!--	-9.63178
▁rise	-9.63202
▁bears	-9.64059
BU	-9.64702
ERS	-9.64794
ce	-9.65136
▁wisdom	-9.65174
▁crave	-9.6552
▁officer	-9.6555
▁health	-9.65818
▁died	-9.6607
ble	-9.66228
▁despair	-9.6629
▁rid	-9.66384
▁Lewis	-9.66551
▁perceive	-9.66551
▁valour	-9.66551
▁Mercutio	-9.66551
▁blame	-9.66557
▁priest	-9.66558
▁cried	-9.66561
▁charity	-9.66562
▁kindred	-9.66568
▁scarce	-9.66569
▁Heaven	-9.66587
for	-9.66606
▁truly	-9.66622
▁Mine	-9.66638
▁Made	-9.66645
▁six	-9.66666
▁Put	-9.66687
▁Pardon	-9.66695
▁spent	-9.66698
▁herself	-9.667
▁foolish	-9.66704
▁aid	-9.6675
▁honourable	-9.66773
▁possess	-9.66778
▁early	-9.66796
▁among	-9.66807
▁stone	-9.66813
▁tent	-9.66942
▁fond	-9.66965
▁eat	-9.67011
▁stars	-9.67116
▁respect	-9.67344
▁wild	-9.67368
ath	-9.67466
▁moved	-9.6754
▁try	-9.6756
p	-9.67701
house	-9.67769
▁cast	-9.6783
▁liest	-9.68419
▁smile	-9.68686
▁dreams	-9.69389
▁Ar	-9.69914
▁going	-9.70109
▁teach	-9.70466
▁shed	-9.7063
LAU	-9.7065
▁bow	-9.7069
▁effect	-9.70822
▁winter	-9.7092
▁force	-9.70983
▁hair	-9.70991
▁honours	-9.71577
ost	-9.71592
▁reign	-9.71799
▁drown	-9.7195
▁Cominius	-9.72107
▁malice	-9.72107
▁view	-9.72107
▁envy	-9.72108
▁vengeance	-9.72108
▁provost	-9.72109
▁Know	-9.72116
▁Never	-9.72118
▁nine	-9.72126
▁Harry	-9.72127
▁bright	-9.72134
▁wherefore	-9.72154
▁abroad	-9.72163
▁yea	-9.72178
▁Alack	-9.72179
▁kindness	-9.72193
▁trial	-9.72196
▁satisfied	-9.72245
▁root	-9.72253
▁question	-9.72258
▁judgment	-9.72259
he	-9.72263
▁masters	-9.72289
▁cure	-9.72293
▁Once	-9.72325
▁wail	-9.72349
▁burn	-9.7239
▁thereof	-9.72562
▁Volsces	-9.72801
▁walls	-9.72962
▁weary	-9.7298
▁party	-9.72983
▁anon	-9.73142
▁flower	-9.73351
▁Fie	-9.73452
▁faint	-9.73906
ment	-9.74478
U	-9.74501
V	-9.74518
▁Bid	-9.74664
▁quick	-9.75646
▁excuse	-9.75786
▁calls	-9.75947
▁sign	-9.76018
▁mar	-9.7634
▁sigh	-9.76424
▁beggar	-9.76486
▁humour	-9.76606
▁enjoy	-9.76706
▁guard	-9.76779
▁bite	-9.76792
ARI	-9.76825
▁vice	-9.76902
▁evil	-9.76927
▁sentence	-9.77314
entleman	-9.77481
▁steal	-9.77634
▁w	-9.77702
▁execution	-9.77717
▁laugh	-9.778
▁account	-9.77827
▁condemn	-9.77854
▁drunk	-9.7792
▁church	-9.77989
▁Corioli	-9.77989
▁Mantua	-9.77989
▁Rutland	-9.77989
▁Vincentio	-9.77989
▁Whilst	-9.77989
▁occasion	-9.77989
▁tyrant	-9.77989
▁Paulina	-9.77989
▁Methinks	-9.77989
▁Thomas	-9.7799
▁Peter	-9.77991
▁deputy	-9.77993
▁blind	-9.77994
▁After	-9.77998
▁corse	-9.7801
▁Please	-9.78013
▁thunder	-9.78023
▁vile	-9.78057
▁gown	-9.78064
▁wanton	-9.78102
▁wretched	-9.78128
▁spake	-9.78133
ting	-9.78134
▁dull	-9.78159
▁boot	-9.78192
▁quite	-9.783
▁True	-9.78341
▁easy	-9.78361
▁honesty	-9.78362
ance	-9.78385
▁wench	-9.78439
▁received	-9.78527
▁lest	-9.78775
was	-9.78914
▁Ear	-9.7893
▁sing	-9.78956
▁divine	-9.79063
ious	-9.79241
▁changed	-9.79507
nt	-9.79846
▁meat	-9.79865
▁foes	-9.80105
▁double	-9.80113
▁brothers	-9.80716
▁mayst	-9.81238
▁others	-9.81434
▁swords	-9.81801
▁coward	-9.82706
ve	-9.82839
▁Prince	-9.82945
▁girl	-9.82955
▁triumph	-9.82963
▁plague	-9.83
▁Capulet	-9.83016
▁knave	-9.83078
▁brow	-9.83088
▁fain	-9.8309
▁creature	-9.83326
▁quo	-9.83328
▁spring	-9.83364
ic	-9.83385
LOR	-9.83583
▁writ	-9.8361
▁depart	-9.83812
▁understand	-9.84015
ate	-9.84105
FI	-9.84106
▁Stanley	-9.84239
▁THOMAS	-9.84239
▁remedy	-9.84239
▁sirrah	-9.84239
▁Caius	-9.84239
▁Verona	-9.84239
▁choice	-9.84239
▁ghost	-9.84239
▁silence	-9.84239
▁Mistress	-9.8424
▁senate	-9.8424
▁repent	-9.84241
▁Brother	-9.84242
▁whilst	-9.84244
▁wicked	-9.84245
▁safety	-9.84247
▁sheep	-9.84251
▁ease	-9.84255
▁fiery	-9.8426
▁Jove	-9.84262
▁hollow	-9.84265
▁twice	-9.8427
▁green	-9.84276
▁thrive	-9.84279
▁roar	-9.8428
▁blest	-9.84292
▁Besides	-9.84296
▁always	-9.84319
▁dust	-9.84356
▁buried	-9.84385
▁rude	-9.84389
▁Friar	-9.84395
▁Death	-9.84413
▁bend	-9.84507
ARE	-9.84519
▁nose	-9.84552
ME	-9.84648
▁simple	-9.84682
▁Love	-9.84801
▁VA	-9.84817
▁fell	-9.84831
▁custom	-9.84891
▁Fai	-9.85178
ERL	-9.85204
▁grown	-9.85207
▁owe	-9.85244
om	-9.85323
▁tongues	-9.8536
▁brows	-9.85441
▁Tut	-9.85494
▁lo	-9.85515
zen	-9.85561
▁pains	-9.85744
▁therein	-9.85851
▁tune	-9.86059
▁door	-9.86379
will	-9.86396
and	-9.86625
et	-9.86716
▁taken	-9.86795
▁thinks	-9.8692
▁Po	-9.86947
▁god	-9.87467
▁Gentle	-9.87609
▁note	-9.87655
▁sacr	-9.88155
▁reasons	-9.88181
▁traitors	-9.88418
ay	-9.88757
▁Und	-9.88911
▁wrongs	-9.88949
▁deserve	-9.89061
▁drop	-9.89265
▁proceed	-9.89287
▁countenance	-9.89503
▁rock	-9.89667
▁demand	-9.89682
▁cheek	-9.89756
▁wall	-9.89945
hose	-9.90062
▁ship	-9.90593
▁Show	-9.9078
▁private	-9.90804
bed	-9.90853
▁Barnardine	-9.90906
▁Capitol	-9.90906
▁Menenius	-9.90906
▁Somerset	-9.90906
▁ignorant	-9.90906
▁practise	-9.90906
▁Apollo	-9.90906
▁Prithee	-9.90906
▁absence	-9.90906
▁despite	-9.90906
▁rotten	-9.90906
▁renown	-9.90906
▁Musician	-9.90906
▁Cousin	-9.90907
▁garden	-9.90907
▁Christian	-9.90907
▁violent	-9.90907
▁oracle	-9.90908
▁benefit	-9.90919
▁Indeed	-9.9092
▁clear	-9.90923
▁sport	-9.90935
▁ruin	-9.90937
▁vantage	-9.90956
▁fury	-9.90965
▁motion	-9.90978
▁hurt	-9.90985
▁Turn	-9.91006
▁Myself	-9.91015
▁troth	-9.91015
▁former	-9.91043
▁firm	-9.91046
▁prize	-9.9105
▁dreadful	-9.91069
▁advantage	-9.91076
▁bark	-9.91085
▁taste	-9.91086
▁prayer	-9.91098
▁castle	-9.91104
▁deceived	-9.91104
▁broken	-9.91126
▁Se	-9.91134
▁belly	-9.91173
▁adieu	-9.91256
▁weeds	-9.91266
▁drawn	-9.91273
▁convey	-9.91331
▁wings	-9.91335
▁claim	-9.91391
▁anger	-9.91413
thing	-9.91439
▁hanging	-9.91461
ERB	-9.91489
▁RI	-9.91595
▁trumpets	-9.91656
▁Wherein	-9.91792
▁wherein	-9.91798
▁went	-9.91838
▁fares	-9.91992
▁mayor	-9.92313
▁stones	-9.92352
▁sharp	-9.92475
▁Lords	-9.92495
▁meaning	-9.92645
▁hit	-9.93162
RT	-9.93263
▁tame	-9.93607
▁sits	-9.94334
▁en	-9.94461
▁colour	-9.94463
▁cares	-9.94851
▁whe	-9.94868
place	-9.95176
▁maids	-9.95484
▁leaves	-9.95494
ne	-9.95509
men	-9.95925
DO	-9.95975
▁receive	-9.96099
▁mis	-9.96243
▁f	-9.96499
▁corn	-9.9666
▁saint	-9.96709
▁fellows	-9.96725
▁finger	-9.9675
▁condition	-9.96794
▁awake	-9.96804
▁throat	-9.96809
▁lamb	-9.96854
▁number	-9.9686
▁affection	-9.96882
▁shore	-9.96888
▁babe	-9.96943
▁success	-9.97012
▁commend	-9.97018
▁storm	-9.97093
▁list	-9.97208
▁devise	-9.97237
▁butcher	-9.97249
▁accuse	-9.97296
▁advise	-9.97395
▁prepare	-9.97425
▁gain	-9.97493
▁dread	-9.97746
▁becomes	-9.97808
▁used	-9.97861
▁plant	-9.97899
▁gross	-9.97938
▁quit	-9.98013
▁low	-9.98013
▁Hermione	-9.98049
▁Thursday	-9.98049
▁burthen	-9.98049
▁chief	-9.98049
▁Pisa	-9.9805
▁envious	-9.9805
▁express	-9.98051
▁several	-9.98054
▁resign	-9.98054
▁Three	-9.98055
▁Rivers	-9.98055
▁tedious	-9.98055
▁tidings	-9.9806
▁cries	-9.98061
▁Grey	-9.98066
▁carry	-9.98066
▁RICH	-9.98067
▁Mark	-9.98069
▁Great	-9.98071
▁undone	-9.98071
▁supper	-9.98073
▁thrust	-9.98074
▁big	-9.98081
▁perish	-9.98081
▁woful	-9.98087
▁threaten	-9.98089
▁authority	-9.98092
▁pawn	-9.981
▁damned	-9.98106
▁peril	-9.9812
▁farther	-9.98123
▁perfect	-9.98126
▁asleep	-9.98141
▁mistake	-9.98141
▁wives	-9.98167
▁affairs	-9.98186
▁garments	-9.98188
▁whole	-9.982
▁stuff	-9.98201
▁pair	-9.98214
▁fatal	-9.98232
▁followers	-9.98244
▁outward	-9.98246
▁possible	-9.98259
▁deposed	-9.98329
▁alas	-9.98344
▁cell	-9.98349
▁due	-9.9838
▁wander	-9.98502
▁prepared	-9.98707
▁Into	-9.98746
is	-9.98823
▁north	-9.99087
▁hunt	-9.99275
▁borne	-9.99361
▁sighs	-9.99493
bout	-10.0001
▁press	-10.0008
▁banished	-10.0014
▁Hast	-10.0027
▁table	-10.0035
ESS	-10.0045
▁begins	-10.0055
:--	-10.0059
▁utter	-10.0073
▁tread	-10.0083
▁humbl	-10.0118
▁chide	-10.0156
▁pack	-10.0158
▁fools	-10.017
time	-10.0181
▁pleased	-10.0186
▁Hence	-10.02
▁ex	-10.0222
▁red	-10.023
▁aught	-10.0251
me	-10.029
of	-10.0295
ary	-10.0335
▁follows	-10.0345
edant	-10.0387
by	-10.04
▁proper	-10.0414
▁wont	-10.0417
▁intend	-10.0431
▁crack	-10.0444
▁prevail	-10.0444
▁innocent	-10.0445
▁neighbour	-10.0453
▁slow	-10.0454
▁shadow	-10.0456
▁guest	-10.0457
▁drum	-10.0459
▁wound	-10.0463
▁proof	-10.047
▁lip	-10.0472
▁knight	-10.0472
▁plead	-10.0483
▁exile	-10.0493
▁lend	-10.0497
▁continue	-10.0504
▁resolve	-10.0509
▁wither	-10.0511
▁endure	-10.0513
▁beast	-10.052
mely	-10.0522
ty	-10.0526
SA	-10.0531
▁di	-10.0542
▁deal	-10.0554
▁discover	-10.0564
▁shape	-10.0568
▁Biondello	-10.0574
▁Polixenes	-10.0574
▁Tailor	-10.0574
▁language	-10.0574
▁remembrance	-10.0574
▁pleasant	-10.0574
▁disdain	-10.0574
▁protest	-10.0574
▁unnatural	-10.0574
▁terror	-10.0574
▁empty	-10.0574
▁Believe	-10.0574
▁paper	-10.0574
▁palace	-10.0574
▁wreck	-10.0574
▁teeth	-10.0574
▁contrary	-10.0575
▁Bona	-10.0575
▁Help	-10.0575
▁courtesy	-10.0575
▁cunning	-10.0575
▁opinion	-10.0575
▁denied	-10.0576
▁undertake	-10.0576
▁twelve	-10.0576
▁spend	-10.0576
▁chair	-10.0576
▁wrath	-10.0576
▁flight	-10.0576
▁miserable	-10.0576
let	-10.0578
▁delay	-10.0578
▁until	-10.0578
▁beheld	-10.0579
▁natural	-10.0579
▁gage	-10.0581
▁forsworn	-10.0582
▁access	-10.0582
▁sorry	-10.0583
▁Boy	-10.0583
▁wedding	-10.0583
▁inform	-10.0586
▁quench	-10.0589
▁dinner	-10.0593
▁round	-10.0593
▁gentlewoman	-10.0594
▁single	-10.0596
▁wait	-10.0596
▁whither	-10.0597
▁shut	-10.0598
▁Still	-10.0599
▁spare	-10.0599
▁prey	-10.0601
▁apparel	-10.0607
▁brook	-10.0609
▁sway	-10.0609
▁curst	-10.0614
▁silver	-10.0615
▁legs	-10.0616
▁room	-10.0624
▁fame	-10.0627
▁goodness	-10.0652
▁glass	-10.0654
▁merit	-10.0656
▁resolved	-10.0657
▁add	-10.0674
▁joyful	-10.0681
▁wine	-10.0698
tw	-10.0704
▁spite	-10.073
▁Am	-10.0731
ch	-10.0735
▁belike	-10.075
▁limit	-10.0759
▁Lo	-10.0807
▁kingly	-10.084
fold	-10.0945
▁hid	-10.096
▁raise	-10.098
hood	-10.1011
▁spirits	-10.103
▁h	-10.1068
▁dam	-10.1088
▁de	-10.1097
▁ay	-10.1098
clock	-10.11
▁MO	-10.1119
▁lament	-10.1123
▁guilt	-10.1146
HOR	-10.1194
▁embrace	-10.1203
▁unti	-10.124
fore	-10.1247
▁plot	-10.1264
▁disposition	-10.1266
▁Hav	-10.1271
▁instrument	-10.129
▁dew	-10.1292
▁fail	-10.1293
▁groan	-10.1294
HAS	-10.1299
▁minister	-10.1302
▁gate	-10.1303
▁sometime	-10.1306
▁Has	-10.1311
▁east	-10.1315
▁intent	-10.1321
ive	-10.1329
▁frame	-10.134
▁seize	-10.1348
▁rule	-10.1362
▁names	-10.1364
▁stoop	-10.1385
▁credit	-10.1387
▁instruct	-10.139
▁greet	-10.1394
▁entertain	-10.1407
▁nobles	-10.1407
▁assurance	-10.1407
▁counterfeit	-10.1407
▁excellent	-10.1407
▁particular	-10.1407
▁Marshal	-10.1407
▁dagger	-10.1407
▁dukedom	-10.1408
▁attempt	-10.1408
▁naked	-10.1408
▁repair	-10.1408
▁government	-10.1408
▁misery	-10.1408
▁obedience	-10.1408
▁bodies	-10.1408
▁swallow	-10.1408
▁hatred	-10.1408
▁smooth	-10.1408
▁ARCH	-10.1408
▁sceptre	-10.1408
▁folly	-10.1409
▁beyond	-10.1409
▁French	-10.1409
▁protector	-10.1409
▁calm	-10.1409
▁hereafter	-10.1409
▁debt	-10.1409
▁hark	-10.141
▁study	-10.1411
▁painted	-10.1412
▁market	-10.1412
▁Father	-10.1414
▁senators	-10.1414
▁passion	-10.1415
▁spoil	-10.1415
▁story	-10.1416
▁needful	-10.1421
▁large	-10.1421
▁making	-10.1422
▁happiness	-10.1423
▁tomb	-10.1424
▁armour	-10.1425
▁shortly	-10.1426
▁Right	-10.1426
▁Beseech	-10.1428
▁Two	-10.1433
▁yonder	-10.1436
▁beloved	-10.1437
▁None	-10.1439
▁discontent	-10.1439
▁sp	-10.1439
▁wounded	-10.1439
▁Only	-10.1456
▁commanded	-10.1458
ever	-10.147
▁keeps	-10.1478
▁courage	-10.1492
▁gaze	-10.1493
not	-10.1493
▁spoken	-10.1493
▁offend	-10.1501
▁sometimes	-10.1528
▁destroy	-10.1529
▁colours	-10.1548
▁fairly	-10.155
LAN	-10.1566
▁called	-10.1579
i	-10.1579
▁parts	-10.1582
▁bare	-10.1591
▁ours	-10.1598
same	-10.16
▁wot	-10.1622
▁remains	-10.1627
▁pure	-10.1629
▁N	-10.1641
teous	-10.1649
▁princess	-10.1651
▁miss	-10.1652
ENE	-10.1655
▁Again	-10.1658
▁sink	-10.166
▁allow	-10.1673
▁Bear	-10.1675
ant	-10.1698
BO	-10.1702
▁looking	-10.1708
▁ring	-10.171
▁ST	-10.1732
▁dares	-10.1739
▁fo	-10.1746
what	-10.175
ess	-10.1757
▁daughters	-10.1762
▁waters	-10.1762
▁approach	-10.1763
▁amen	-10.1769
▁curses	-10.177
nd	-10.1786
▁gives	-10.1836
▁seest	-10.1844
▁loath	-10.1859
▁services	-10.1874
▁AB	-10.1907
▁per	-10.1926
▁oft	-10.1932
▁seas	-10.1963
passing	-10.1968
▁seeing	-10.1969
ach	-10.1973
▁turns	-10.1979
▁whiles	-10.198
▁horses	-10.2
ose	-10.2004
▁spur	-10.2006
ure	-10.2041
▁boar	-10.2054
▁fortunes	-10.2119
▁joys	-10.2132
▁praise	-10.2133
den	-10.2165
▁dwell	-10.2176
▁bastard	-10.2177
▁passage	-10.2178
▁trade	-10.2179
▁torment	-10.2185
▁rogue	-10.2186
▁degree	-10.2191
il	-10.2193
▁delight	-10.2196
▁Volsce	-10.2202
▁princes	-10.2204
▁month	-10.2219
▁trick	-10.222
▁mourn	-10.2226
▁write	-10.2227
▁odd	-10.223
▁murderer	-10.2232
▁mile	-10.2235
▁store	-10.2241
▁hopes	-10.227
▁brain	-10.2275
▁Unti	-10.2281
▁blush	-10.2288
▁kin	-10.2296
▁mild	-10.2297
▁punish	-10.23
▁special	-10.2305
▁Boatswain	-10.2317
▁Dorset	-10.2317
▁Exeter	-10.2317
▁Soldier	-10.2317
▁increase	-10.2317
▁monstrous	-10.2317
▁treacherous	-10.2317
▁vault	-10.2317
▁Lucio	-10.2317
▁Naples	-10.2317
▁commission	-10.2317
▁knife	-10.2317
▁slept	-10.2317
▁venom	-10.2317
▁absent	-10.2317
▁enmity	-10.2317
▁captain	-10.2317
▁realm	-10.2317
▁resolution	-10.2317
▁scope	-10.2317
▁torture	-10.2317
▁thief	-10.2317
▁earnest	-10.2317
▁suspicion	-10.2317
▁unknown	-10.2317
▁strew	-10.2317
▁cease	-10.2317
▁lark	-10.2318
▁perpetual	-10.2318
▁estate	-10.2318
▁Draw	-10.2318
▁reverend	-10.2318
▁temple	-10.2318
▁treasure	-10.2319
▁March	-10.2319
▁prosperous	-10.2319
▁behalf	-10.232
▁rash	-10.232
▁scene	-10.2322
▁contract	-10.2322
▁Whither	-10.2323
▁hateful	-10.2328
▁accept	-10.233
▁Gentlemen	-10.2331
▁nought	-10.2331
▁slay	-10.2332
▁Widow	-10.2338
▁weather	-10.2338
▁respected	-10.2339
▁acquaint	-10.234
▁Came	-10.2341
▁wits	-10.2341
▁Sicilia	-10.2341
▁flies	-10.2341
▁Lay	-10.2341
▁giving	-10.2346
▁Dear	-10.2347
▁granted	-10.2354
▁fish	-10.2354
▁island	-10.2355
▁freely	-10.2355
▁Post	-10.2355
▁sky	-10.236
▁lean	-10.2362
te	-10.2364
the	-10.2364
▁Long	-10.2368
▁Amen	-10.2375
▁terms	-10.2383
▁Le	-10.2383
▁friendly	-10.2387
▁blessing	-10.2388
▁gall	-10.2393
▁ends	-10.2396
▁contented	-10.2397
▁catch	-10.2404
▁odds	-10.2427
▁Ho	-10.2429
▁wide	-10.243
▁camest	-10.2437
▁worn	-10.2446
▁pitch	-10.245
teen	-10.2455
▁drums	-10.2456
▁Re	-10.247
▁th	-10.2477
▁deserves	-10.2485
▁drops	-10.2507
b	-10.2514
▁nativ	-10.252
▁leads	-10.2521
▁manners	-10.2537
▁faces	-10.2552
ent	-10.2556
▁fright	-10.2559
ted	-10.2571
▁Worth	-10.2572
▁isle	-10.258
▁pe	-10.2589
ur	-10.2592
▁crowns	-10.2597
▁seeming	-10.2598
▁grows	-10.2613
▁shine	-10.2632
▁wants	-10.266
▁cur	-10.2665
heart	-10.271
▁winds	-10.2723
ied	-10.2727
▁serves	-10.276
▁pa	-10.2769
ck	-10.2799
▁Wh	-10.2835
▁top	-10.2845
▁dies	-10.2856
am	-10.2874
▁sins	-10.291
▁profess	-10.2921
God	-10.2932
faced	-10.2938
▁smiles	-10.2945
born	-10.2968
▁ways	-10.3032
▁fare	-10.3061
eign	-10.3073
,'	-10.3087
▁grieve	-10.3129
▁led	-10.313
▁whip	-10.315
▁Son	-10.3158
▁heed	-10.3161
▁AEdile	-10.3174
▁stamp	-10.3176
▁desert	-10.3189
▁rascal	-10.319
▁elder	-10.3192
▁image	-10.3195
▁sail	-10.3195
▁gift	-10.3196
be	-10.3196
▁afford	-10.3198
▁profit	-10.3202
▁trumpet	-10.3208
▁purse	-10.3213
her	-10.3219
▁stroke	-10.322
▁Ver	-10.3221
▁dire	-10.3223
▁bird	-10.3224
▁enforce	-10.3247
▁lion	-10.3247
▁tide	-10.3274
▁mount	-10.3278
▁feed	-10.3295
▁weigh	-10.3297
▁expect	-10.33
▁prick	-10.3302
▁ripe	-10.3305
▁breed	-10.3305
▁equal	-10.3313
▁brings	-10.3315
▁loud	-10.3315
▁loyal	-10.3316
▁solemn	-10.3316
UGH	-10.3317
▁Huntsman	-10.3317
▁Pomfret	-10.3317
▁Ratcliff	-10.3317
▁Rosaline	-10.3317
▁parliament	-10.3317
▁sanctuary	-10.3317
▁journey	-10.3317
▁perforce	-10.3317
▁Ireland	-10.3317
▁Ghost	-10.3317
▁garland	-10.3317
▁afternoon	-10.3317
▁Titus	-10.3317
▁advice	-10.3317
▁silent	-10.3317
▁grievous	-10.3317
▁Conspirator	-10.3317
▁conceit	-10.3317
▁imprisonment	-10.3317
▁daily	-10.3317
▁maintain	-10.3317
▁revolt	-10.3317
▁habit	-10.3317
▁wholesome	-10.3317
▁thrice	-10.3317
▁third	-10.3317
▁committed	-10.3317
▁wrought	-10.3318
▁begun	-10.3318
▁temper	-10.3318
▁constant	-10.3319
▁gently	-10.3319
▁nobly	-10.332
▁avoid	-10.3322
▁conduct	-10.3323
▁according	-10.3324
▁yoke	-10.3324
▁employ	-10.3326
▁Down	-10.3328
▁lusty	-10.3329
▁county	-10.3331
▁season	-10.3331
▁chase	-10.3333
▁rare	-10.3334
▁conjure	-10.3334
▁veins	-10.3335
▁current	-10.3336
▁arrived	-10.3337
▁slip	-10.3337
▁escape	-10.3337
▁jealous	-10.3338
▁aboard	-10.3341
▁willingly	-10.3341
▁hardly	-10.3342
▁amazed	-10.3346
▁dress	-10.3347
▁dying	-10.3348
▁south	-10.3348
▁privilege	-10.3348
sh	-10.3348
▁bethink	-10.3351
▁cover	-10.3352
▁cup	-10.3353
▁forbear	-10.3354
▁peers	-10.336
▁Bring	-10.336
▁streets	-10.3361
▁soundly	-10.3363
▁torch	-10.3363
▁Froth	-10.3363
▁whereof	-10.3364
▁hanged	-10.3368
▁greatest	-10.3368
▁urged	-10.3368
▁supposed	-10.3369
▁unless	-10.3371
▁messenger	-10.3372
▁assured	-10.3375
▁wept	-10.3376
▁kindly	-10.3382
▁purchase	-10.3383
▁dish	-10.3396
▁ruth	-10.3396
▁school	-10.3398
▁comest	-10.3405
▁accused	-10.341
▁darest	-10.3412
▁Thanks	-10.3428
▁faithful	-10.3434
▁stopp	-10.344
een	-10.3441
▁groans	-10.3456
▁stranger	-10.346
▁instruments	-10.3461
▁feeling	-10.3463
▁powers	-10.3464
▁Young	-10.3484
▁affections	-10.3486
▁boots	-10.3487
▁bury	-10.3492
▁Fr	-10.3514
▁hasty	-10.3548
▁rain	-10.3581
ings	-10.3587
▁pieces	-10.361
▁charged	-10.362
▁revenged	-10.3625
▁Romans	-10.3656
▁vows	-10.3658
▁bearing	-10.3667
▁aunt	-10.3671
▁Ye	-10.3693
ILLO	-10.371
▁lovely	-10.3715
▁wood	-10.3724
▁houses	-10.373
▁shoulder	-10.3741
▁alike	-10.3748
▁salt	-10.3766
▁oak	-10.3799
▁ones	-10.3808
▁waste	-10.3809
▁sooth	-10.3846
if	-10.3855
ut	-10.3876
?--	-10.3888
▁bade	-10.3901
▁po	-10.3914
▁star	-10.3921
▁la	-10.3935
▁alter	-10.3958
king	-10.3959
▁suck	-10.399
▁appeal	-10.3995
▁sends	-10.402
▁pi	-10.4028
row	-10.4061
CH	-10.407
▁hat	-10.4098
▁betw	-10.411
▁ride	-10.4131
ar	-10.4137
▁muster	-10.4142
▁pre	-10.4148
look	-10.4154
▁l	-10.4159
▁tempt	-10.4169
▁fa	-10.4171
▁beard	-10.4208
ster	-10.4214
▁lust	-10.4221
▁affect	-10.4245
▁holds	-10.4251
▁spit	-10.4254
▁glori	-10.428
ts	-10.4284
▁forfeit	-10.4285
▁abide	-10.4285
▁remove	-10.4289
▁ballad	-10.4296
▁pound	-10.4306
▁design	-10.4307
▁Jack	-10.4313
rs	-10.4313
▁rose	-10.4314
▁tremble	-10.4332
▁count	-10.4333
▁cap	-10.4339
▁complain	-10.4349
ound	-10.4351
▁fashion	-10.4352
▁censure	-10.4353
ought	-10.4357
▁disgrace	-10.4359
▁retire	-10.4359
▁determine	-10.4371
▁assure	-10.4376
▁sue	-10.4376
ture	-10.4382
▁virgin	-10.4385
▁stabb	-10.4414
▁saying	-10.4415
▁length	-10.442
▁Proceed	-10.4428
▁Caesar	-10.4428
▁Salisbury	-10.4428
▁Tyrrel	-10.4428
▁Vienna	-10.4428
▁appetite	-10.4428
▁bridegroom	-10.4428
▁exercise	-10.4428
▁melancholy	-10.4428
▁monument	-10.4428
▁obedient	-10.4428
▁penitent	-10.4428
▁remorse	-10.4428
▁tyranny	-10.4428
▁vessel	-10.4428
▁Derby	-10.4428
▁alliance	-10.4428
▁impossible	-10.4428
▁repeal	-10.4428
▁fancy	-10.4428
▁devotion	-10.4428
▁sullen	-10.4428
▁infant	-10.4428
▁exchange	-10.4428
▁conference	-10.4428
▁betray	-10.4428
▁secure	-10.4428
▁descend	-10.4428
▁morn	-10.4428
▁twain	-10.4428
▁blunt	-10.4428
▁defence	-10.4428
▁Milan	-10.4428
▁league	-10.4428
▁holp	-10.4428
▁tempest	-10.4428
▁dignity	-10.4428
▁entertainment	-10.4428
▁unhappy	-10.4428
▁regard	-10.4429
▁froward	-10.4429
▁rebellion	-10.4429
▁iron	-10.4429
▁Fourth	-10.4429
▁direction	-10.4429
▁barren	-10.4429
▁deceit	-10.4429
▁falsehood	-10.443
▁mistrust	-10.4431
▁sovereignty	-10.4431
▁task	-10.4432
▁weakness	-10.4432
▁caught	-10.4433
▁apparent	-10.4434
▁patricians	-10.4436
▁tarry	-10.4436
▁redeem	-10.4437
▁forgive	-10.4439
▁brace	-10.4439
▁forswear	-10.4442
▁food	-10.4445
▁lance	-10.4445
▁offended	-10.4446
▁conceive	-10.4446
▁household	-10.4448
▁prevent	-10.4448
▁powerful	-10.445
▁betimes	-10.445
▁Noble	-10.4452
▁reverence	-10.4453
▁contempt	-10.4453
▁Wilt	-10.4454
▁gallant	-10.4454
▁finds	-10.4455
▁imagine	-10.4457
▁sickness	-10.4457
▁rank	-10.4459
▁waking	-10.4462
▁Count	-10.4464
▁feet	-10.4464
▁although	-10.4465
▁snow	-10.4465
▁yond	-10.4467
▁import	-10.4467
▁surely	-10.4469
▁Fare	-10.4472
▁lent	-10.4475
▁below	-10.4478
▁executioner	-10.4481
▁Live	-10.4481
▁edge	-10.4487
▁alack	-10.4493
▁determined	-10.4494
▁spy	-10.4494
▁besides	-10.4496
▁fairest	-10.4498
▁beholding	-10.4501
▁withdraw	-10.4502
▁figure	-10.4503
▁aim	-10.4505
old	-10.4508
▁rail	-10.4516
▁ruled	-10.4517
ivil	-10.4537
▁weight	-10.4537
ring	-10.4543
▁pretti	-10.4545
▁shrew	-10.4555
▁pursue	-10.4565
▁ado	-10.4571
▁swell	-10.4571
▁unjust	-10.4581
▁ago	-10.4593
▁provoke	-10.4593
▁beasts	-10.4593
LIS	-10.4603
▁forced	-10.4603
▁pierce	-10.4616
▁sell	-10.463
▁ope	-10.4637
▁knaves	-10.4643
▁tall	-10.4644
▁desires	-10.4678
▁Become	-10.4682
▁breathed	-10.4686
▁meeting	-10.4687
▁parting	-10.4695
ommend	-10.473
▁mouths	-10.4753
▁books	-10.4757
▁standing	-10.4777
▁con	-10.4788
▁slaves	-10.4797
▁r	-10.4816
ual	-10.4824
most	-10.4838
▁fe	-10.484
▁clo	-10.4856
▁blot	-10.4858
▁apt	-10.487
▁BA	-10.4873
ize	-10.4874
▁horn	-10.4885
▁able	-10.4888
▁virtues	-10.4896
▁hie	-10.4931
▁meant	-10.4955
▁points	-10.4965
▁keeper	-10.4983
ather	-10.4986
more	-10.5071
law	-10.5075
▁cock	-10.5076
ough	-10.5078
RIAN	-10.5084
▁oaths	-10.5089
▁commons	-10.5089
▁weeps	-10.5117
▁graves	-10.5128
OTH	-10.5143
▁Co	-10.5172
ter	-10.5203
▁stretch	-10.5225
▁fires	-10.5232
▁fears	-10.5232
ping	-10.5234
Tw	-10.5261
▁sh	-10.5276
▁Up	-10.5297
▁Set	-10.5326
▁revel	-10.5327
pardon	-10.5351
REL	-10.5388
banished	-10.5389
xt	-10.54
▁petition	-10.5442
▁human	-10.5444
shrew	-10.5446
▁wake	-10.5465
icious	-10.5475
ian	-10.5479
▁suspect	-10.5491
▁Me	-10.5496
ory	-10.5511
▁boys	-10.552
▁Off	-10.5522
▁discourse	-10.5534
▁eagle	-10.5534
▁disease	-10.5548
▁block	-10.5549
▁instruction	-10.5556
▁reward	-10.5559
▁accident	-10.5568
▁grain	-10.5572
▁brawl	-10.5576
▁suitor	-10.5581
▁agree	-10.5582
▁scar	-10.5583
▁pronounce	-10.561
were	-10.5612
Ay	-10.5614
ngling	-10.5624
my	-10.5631
▁trembl	-10.564
▁consider	-10.5641
▁angel	-10.5655
▁br	-10.5658
▁modest	-10.5663
▁record	-10.5665
▁famous	-10.5667
▁public	-10.5668
▁sore	-10.5673
▁knot	-10.5675
▁corrupt	-10.5677
▁Lartius	-10.5678
▁Perdita	-10.5678
▁William	-10.5678
▁adventure	-10.5678
▁adversaries	-10.5678
▁challenge	-10.5678
▁perhaps	-10.5678
▁policy	-10.5678
▁profane	-10.5678
▁sepulchre	-10.5678
▁subtle	-10.5678
▁thirty	-10.5678
▁trespass	-10.5678
▁wondrous	-10.5678
▁Villain	-10.5678
▁ignorance	-10.5678
▁zeal	-10.5678
▁Bushy	-10.5678
▁Happy	-10.5678
▁memory	-10.5678
▁fierce	-10.5678
▁shroud	-10.5678
▁example	-10.5678
▁statue	-10.5678
▁beauteous	-10.5678
▁mirth	-10.5678
▁Return	-10.5678
▁descent	-10.5678
▁succeed	-10.5678
▁mischance	-10.5678
▁Paul	-10.5678
▁spleen	-10.5678
▁bigger	-10.5678
▁harsh	-10.5678
▁redress	-10.5678
▁proclamation	-10.5678
▁axe	-10.5678
▁confirm	-10.5678
▁fourteen	-10.5678
▁seldom	-10.5678
▁swain	-10.5678
▁Tullus	-10.5678
▁Italy	-10.5678
▁Mariana	-10.5678
▁dismiss	-10.5678
▁satisfy	-10.5679
▁infection	-10.5679
▁confound	-10.5679
▁accursed	-10.5679
▁triumphant	-10.5679
▁scandal	-10.5679
▁Follow	-10.5679
▁tapster	-10.5679
▁opposite	-10.5679
▁chaste	-10.5679
▁mystery	-10.5679
▁reap	-10.5679
▁pause	-10.5679
▁extremity	-10.568
▁lightning	-10.568
▁wager	-10.5681
▁refuse	-10.5681
▁Tush	-10.5681
▁Behold	-10.5681
▁supply	-10.5681
▁countrymen	-10.5684
▁Time	-10.5684
▁burst	-10.5684
▁absolute	-10.5685
▁appointed	-10.5686
▁heartily	-10.5687
▁repose	-10.5687
▁thread	-10.5687
▁Hail	-10.569
▁scold	-10.5692
▁object	-10.5692
▁Among	-10.5692
▁sweat	-10.5692
▁began	-10.5692
▁modesty	-10.5693
▁jot	-10.5694
▁proportion	-10.5698
der	-10.5698
▁Sound	-10.5698
▁lap	-10.5699
▁visage	-10.5705
▁dowry	-10.5706
▁feather	-10.5708
▁week	-10.5708
▁plainly	-10.5709
▁share	-10.571
▁pleasing	-10.5713
▁greatness	-10.5714
▁manage	-10.5716
▁dearest	-10.5717
▁youngest	-10.5717
▁clothes	-10.5718
▁writing	-10.5723
▁Anon	-10.5727
▁train	-10.5729
▁BO	-10.5731
▁stick	-10.5732
▁beget	-10.5734
▁executed	-10.5736
▁vex	-10.574
▁mend	-10.5741
▁abused	-10.5743
▁shun	-10.5744
▁stronger	-10.5745
▁yielded	-10.5746
▁lift	-10.575
▁windows	-10.575
▁trusty	-10.5753
▁deck	-10.5756
▁lad	-10.576
▁Uncl	-10.5764
▁steeds	-10.5766
▁bond	-10.5768
▁Fair	-10.5771
▁port	-10.5771
▁growing	-10.5781
▁dearly	-10.5788
▁shrewd	-10.5793
▁wakes	-10.5804
▁Better	-10.5815
art	-10.5823
▁Cry	-10.583
▁strokes	-10.583
▁removed	-10.5837
▁sets	-10.5857
▁wed	-10.5857
side	-10.5866
▁bred	-10.5875
▁Send	-10.5875
▁shadows	-10.5878
▁hire	-10.5879
▁babes	-10.589
▁strive	-10.5907
happily	-10.5917
▁intelligence	-10.5919
▁meddle	-10.5925
▁younger	-10.593
▁toad	-10.5941
ven	-10.5943
▁Ever	-10.5952
▁fathers	-10.5961
▁craves	-10.5964
▁build	-10.5999
▁urge	-10.6013
▁sweeter	-10.6017
led	-10.6019
▁frowns	-10.6034
▁servants	-10.6037
▁cheap	-10.6037
blown	-10.6049
SS	-10.6055
ments	-10.6066
up	-10.609
▁hare	-10.6091
▁fr	-10.6119
▁wink	-10.6126
▁served	-10.6129
▁theirs	-10.6142
▁n	-10.6147
▁disma	-10.6165
▁flourish	-10.6217
▁ran	-10.6261
▁car	-10.6275
▁lover	-10.6287
▁heirs	-10.6294
IST	-10.6297
▁hated	-10.6323
▁marks	-10.6356
▁sights	-10.6383
▁sli	-10.6405
IT	-10.6441
▁wing	-10.645
▁rega	-10.6464
▁flow	-10.6485
▁uncles	-10.6526
▁tooth	-10.654
▁Him	-10.6573
▁fee	-10.6573
▁cost	-10.6577
▁pin	-10.6584
▁Office	-10.6587
▁heap	-10.6587
here	-10.6623
▁Dis	-10.663
ish	-10.6633
▁sup	-10.6646
▁craft	-10.6674
aving	-10.6675
ine	-10.6703
▁lovest	-10.6749
gs	-10.6765
over	-10.6779
▁griefs	-10.6788
▁push	-10.6791
score	-10.6801
▁yes	-10.6841
that	-10.6849
▁whet	-10.6857
RTI	-10.6864
worthy	-10.6871
LEO	-10.688
ice	-10.6886
▁sorrows	-10.6888
▁Peda	-10.6903
▁abuse	-10.6907
▁U	-10.6956
▁character	-10.6963
▁possession	-10.6965
▁smell	-10.6969
▁jewel	-10.6974
▁charm	-10.6979
▁crow	-10.6981
▁minute	-10.6983
▁weapon	-10.6984
▁shield	-10.6993
▁troop	-10.6994
▁date	-10.6994
▁easi	-10.7005
▁worm	-10.7011
▁stock	-10.7014
▁lock	-10.7019
▁provide	-10.7037
▁term	-10.7044
▁execute	-10.7046
ake	-10.7048
▁minds	-10.7063
▁rights	-10.7067
▁Men	-10.7078
▁pu	-10.7078
▁direct	-10.7079
▁infect	-10.7091
▁hung	-10.7091
▁chat	-10.7091
▁wealth	-10.7095
▁afflict	-10.7105
▁prophet	-10.7105
▁conceal	-10.7106
▁blemish	-10.7106
▁compass	-10.7106
▁choler	-10.7106
▁Berkeley	-10.7106
▁Caliban	-10.7106
▁Cambio	-10.7106
▁Elbow	-10.7106
▁Escalus	-10.7106
▁Leontes	-10.7106
▁Licio	-10.7106
▁Strike	-10.7106
▁Surrey	-10.7106
▁bottom	-10.7106
▁caitiff	-10.7106
▁giddy	-10.7106
▁immortal	-10.7106
▁liberal	-10.7106
▁nuptial	-10.7106
▁process	-10.7106
▁recompense	-10.7106
▁rejoice	-10.7106
▁revenue	-10.7106
▁shrift	-10.7106
▁substance	-10.7106
▁velvet	-10.7106
▁couple	-10.7106
▁Laurence	-10.7106
▁grandsire	-10.7106
▁monster	-10.7106
▁peevish	-10.7106
▁fardel	-10.7106
▁coronation	-10.7106
▁violence	-10.7106
▁rapier	-10.7106
▁misfortune	-10.7106
▁savage	-10.7106
▁Justice	-10.7106
▁Wiltshire	-10.7106
▁clamour	-10.7106
▁trunk	-10.7106
▁churchyard	-10.7106
▁tiger	-10.7106
▁necessity	-10.7106
▁occupation	-10.7106
▁cherish	-10.7106
▁physician	-10.7106
▁prompt	-10.7106
▁pitiful	-10.7106
▁reputation	-10.7106
▁scatter	-10.7106
▁written	-10.7107
▁midnight	-10.7107
▁honey	-10.7107
▁commonwealth	-10.7107
▁Methought	-10.7107
▁Green	-10.7107
▁price	-10.7107
▁Wife	-10.7108
▁Shore	-10.7108
▁courteous	-10.7108
▁succession	-10.7108
▁courtier	-10.7109
▁shook	-10.7109
▁careful	-10.7109
▁borrow	-10.7109
▁stout	-10.7109
▁approve	-10.711
▁hazard	-10.711
▁nobility	-10.711
▁outrage	-10.711
▁Fortune	-10.711
▁childish	-10.7111
▁presume	-10.7111
▁prime	-10.7111
▁Grace	-10.7112
▁mountain	-10.7112
▁reply	-10.7112
▁stale	-10.7112
▁Another	-10.7112
▁royalty	-10.7113
▁unfold	-10.7113
▁consort	-10.7114
▁smother	-10.7115
▁apprehend	-10.7115
▁sadness	-10.7115
▁senseless	-10.7116
▁lengthen	-10.7117
▁thumb	-10.7117
▁carried	-10.7117
▁behavior	-10.7117
▁warriors	-10.7117
▁skill	-10.7118
▁paid	-10.7118
▁injury	-10.7119
▁putting	-10.7119
▁Wherefore	-10.712
▁drunken	-10.712
▁wipe	-10.7121
▁balm	-10.7121
▁madness	-10.7121
▁Hang	-10.7122
▁liking	-10.7122
▁lurk	-10.7123
▁Anne	-10.7123
▁prevented	-10.7123
▁haught	-10.7124
▁amiss	-10.7124
▁forthwith	-10.7124
▁metal	-10.7125
▁shop	-10.7126
▁Woe	-10.7127
▁bands	-10.7127
▁pinch	-10.7127
▁companion	-10.7129
▁boast	-10.713
▁shade	-10.713
▁inclined	-10.7131
▁dispersed	-10.7133
▁Sometime	-10.7133
▁flame	-10.7134
▁spark	-10.7135
▁livery	-10.7136
▁bitterly	-10.7137
▁wolf	-10.7137
▁deaf	-10.7138
▁Jesu	-10.7138
▁befall	-10.7139
▁hungry	-10.7139
;--	-10.7141
▁pace	-10.7142
▁Find	-10.7148
▁lying	-10.7149
▁bleeding	-10.715
▁thereby	-10.7152
▁main	-10.7152
▁bore	-10.7152
▁dower	-10.7153
▁brown	-10.7155
▁bread	-10.7156
▁anointed	-10.7157
▁limbs	-10.7158
▁sought	-10.716
▁alms	-10.7165
▁pick	-10.717
▁waves	-10.7171
etch	-10.7173
▁rebels	-10.7174
▁abhorr	-10.7174
▁lodge	-10.7176
▁neat	-10.7178
▁bestow	-10.7181
▁Remember	-10.7183
▁heels	-10.7191
▁yon	-10.7191
▁burning	-10.7194
▁likeness	-10.7196
▁steps	-10.7199
▁burnt	-10.7203
augh	-10.7204
▁reach	-10.7205
▁wanting	-10.7208
▁Whereto	-10.721
▁stead	-10.7211
▁joints	-10.7212
▁sooner	-10.7212
▁Dido	-10.7214
▁hurl	-10.7215
▁dove	-10.7215
▁Full	-10.7216
▁Soft	-10.7218
▁whereon	-10.7219
▁wooing	-10.7223
▁stern	-10.7225
▁troops	-10.7225
▁damn	-10.7226
▁rust	-10.7234
▁shallow	-10.7239
▁rack	-10.724
▁swore	-10.7243
▁suitors	-10.7248
▁rear	-10.7255
▁forty	-10.726
▁wor	-10.726
▁caps	-10.7264
▁Awake	-10.7271
▁birds	-10.7281
▁affords	-10.7282
▁breathing	-10.7295
▁Mars	-10.7297
▁months	-10.7298
▁sting	-10.7301
rough	-10.7303
▁praises	-10.7305
▁Ely	-10.7306
▁toil	-10.7307
▁bowl	-10.7317
▁lower	-10.7324
▁conclude	-10.7324
▁shapes	-10.733
raised	-10.7334
▁guests	-10.7336
▁sleeping	-10.7338
▁hail	-10.7342
▁govern	-10.7345
▁saints	-10.7356
▁advised	-10.7372
▁consume	-10.7375
▁thin	-10.7389
▁parted	-10.7394
▁blast	-10.7411
un	-10.7412
▁burns	-10.7417
lthough	-10.7433
▁nest	-10.7439
▁sings	-10.7442
▁officers	-10.7452
▁Lie	-10.7498
ier	-10.7515
are	-10.7519
▁Whiles	-10.7522
▁senses	-10.7526
▁actions	-10.7527
▁dogs	-10.7537
eave	-10.759
▁likely	-10.7592
▁Dare	-10.7598
▁lamentabl	-10.7607
▁rate	-10.7619
▁quot	-10.7624
▁moves	-10.7633
taught	-10.7644
▁Ne	-10.7647
▁assist	-10.7649
▁west	-10.7656
▁cram	-10.7667
▁suits	-10.7695
ow	-10.7699
▁dur	-10.7716
▁riches	-10.7724
▁maiden	-10.7729
▁Prov	-10.7736
fully	-10.7736
▁offices	-10.7742
▁Ten	-10.7748
▁Mis	-10.7783
▁thick	-10.7805
one	-10.7821
▁moral	-10.7826
▁yields	-10.7835
▁thinking	-10.7837
▁owes	-10.784
shall	-10.7841
ng	-10.7842
▁ba	-10.7844
▁telling	-10.7847
▁rue	-10.785
SO	-10.786
▁sire	-10.7926
aming	-10.7964
but	-10.8052
▁game	-10.8058
▁song	-10.8059
▁ages	-10.8073
heir	-10.8101
f	-10.811
CHI	-10.8119
▁bar	-10.813
▁bent	-10.8155
▁Oh	-10.8161
ery	-10.8173
▁wi	-10.8177
ns	-10.8181
▁lev	-10.8185
which	-10.8209
▁willing	-10.8246
el	-10.8256
▁laws	-10.8283
▁melt	-10.8286
blood	-10.8322
maid	-10.8322
made	-10.8323
red	-10.8327
cy	-10.8352
all	-10.8369
foot	-10.8379
▁marvel	-10.8403
▁sees	-10.843
▁rag	-10.847
▁heat	-10.8486
govern	-10.8491
▁omit	-10.8504
▁tr	-10.8511
▁pierc	-10.8515
aught	-10.852
cond	-10.8534
ship	-10.854
shape	-10.8543
soever	-10.8552
eous	-10.8552
▁tomorrow	-10.8553
possess	-10.8568
▁upright	-10.8589
ern	-10.8613
▁substitute	-10.8632
▁extreme	-10.8636
▁complexion	-10.864
▁accusation	-10.864
wing	-10.8646
▁circumstance	-10.8646
▁flood	-10.8646
▁fiend	-10.8652
▁fawn	-10.8659
▁whit	-10.8664
▁stomach	-10.8664
ARDIN	-10.8665
▁cheque	-10.8668
▁steed	-10.8672
▁graced	-10.8673
▁grey	-10.8677
▁sur	-10.8679
dieu	-10.8683
▁leg	-10.8686
▁greeting	-10.8688
we	-10.8693
▁complaint	-10.8694
▁reconcile	-10.8698
▁places	-10.87
▁stumble	-10.8702
▁persuade	-10.8702
▁purge	-10.8702
▁preserve	-10.8705
▁confine	-10.8711
▁step	-10.8712
▁thorn	-10.8713
▁concern	-10.8718
▁depose	-10.8718
▁brat	-10.8723
▁rob	-10.8726
▁fix	-10.8733
take	-10.8739
▁coat	-10.8739
▁conquer	-10.875
▁Play	-10.8752
▁line	-10.8753
▁neglect	-10.8757
▁resist	-10.8758
▁prosper	-10.8767
lown	-10.8772
▁frail	-10.8773
▁Antigonus	-10.8773
▁Benvolio	-10.8773
▁Burgundy	-10.8773
▁Coventry	-10.8773
▁Gardener	-10.8773
▁Patience	-10.8773
▁Perhaps	-10.8773
▁Persuade	-10.8773
▁Ravenspurgh	-10.8773
▁Vouchsafe	-10.8773
▁afraid	-10.8773
▁allegiance	-10.8773
▁cabin	-10.8773
▁conquest	-10.8773
▁delicate	-10.8773
▁estimation	-10.8773
▁falcon	-10.8773
▁integrity	-10.8773
▁philosophy	-10.8773
▁poverty	-10.8773
▁satisfaction	-10.8773
▁scratch	-10.8773
▁signify	-10.8773
▁sufficient	-10.8773
▁tyrannous	-10.8773
▁Comfort	-10.8773
▁Minola	-10.8773
▁entrance	-10.8773
▁varlet	-10.8773
▁Bagot	-10.8773
▁Captain	-10.8773
▁procure	-10.8773
▁lecture	-10.8773
▁narrow	-10.8773
▁Venice	-10.8773
▁approbation	-10.8773
▁Proclaim	-10.8773
▁serpent	-10.8773
▁Appear	-10.8773
▁middle	-10.8773
▁Blunt	-10.8773
▁crutch	-10.8773
▁enrich	-10.8773
▁pedlar	-10.8773
▁kinsmen	-10.8773
▁pomp	-10.8773
▁esteem	-10.8773
▁bowels	-10.8773
▁lewd	-10.8773
▁mutinous	-10.8773
▁constable	-10.8773
▁crush	-10.8773
▁freedom	-10.8773
▁Else	-10.8773
▁pilgrimage	-10.8773
▁destruction	-10.8773
▁bridal	-10.8773
▁Nature	-10.8773
▁ransom	-10.8773
▁Women	-10.8773
▁array	-10.8774
▁loathsome	-10.8774
▁vanity	-10.8774
▁Curtis	-10.8774
▁eleven	-10.8774
▁partner	-10.8774
▁pearl	-10.8774
▁unkindness	-10.8774
▁Withdraw	-10.8774
▁errand	-10.8774
rew	-10.8774
▁Neither	-10.8774
▁departure	-10.8774
▁readiness	-10.8774
▁volume	-10.8775
aoler	-10.8775
▁swoon	-10.8775
▁stream	-10.8775
▁grandam	-10.8775
▁lodging	-10.8775
▁likewise	-10.8775
▁counsellor	-10.8775
▁detest	-10.8775
▁thieves	-10.8775
▁devilish	-10.8775
▁busy	-10.8775
▁restrain	-10.8776
▁mildness	-10.8776
▁merchant	-10.8776
▁heavier	-10.8776
▁droop	-10.8777
▁also	-10.8777
▁lute	-10.8777
▁interchange	-10.8777
▁signal	-10.8777
▁drew	-10.8778
▁al	-10.8778
▁curtain	-10.8778
▁Swear	-10.8779
▁apace	-10.8779
▁downright	-10.8779
Sunday	-10.8779
▁darkness	-10.8779
▁vast	-10.8779
▁Trust	-10.8779
▁recover	-10.878
▁entreaties	-10.878
▁settled	-10.878
▁bidding	-10.878
▁defy	-10.878
▁instantly	-10.878
▁furnish	-10.878
▁fleet	-10.8781
▁attain	-10.8782
▁friendship	-10.8782
▁fray	-10.8782
▁Saw	-10.8782
▁ashamed	-10.8782
▁youthful	-10.8783
▁Dian	-10.8783
▁boldness	-10.8783
▁members	-10.8783
▁stolen	-10.8784
▁budge	-10.8784
▁joint	-10.8785
▁fever	-10.8786
▁careless	-10.8786
▁cloudy	-10.8786
▁load	-10.8786
▁fro	-10.8787
▁rush	-10.8787
▁ambitio	-10.8789
▁multitude	-10.879
▁shoes	-10.879
▁beef	-10.879
▁raven	-10.879
▁tempted	-10.8791
▁cook	-10.8792
▁eaten	-10.8793
▁buckle	-10.8795
▁aspect	-10.8795
▁amain	-10.8796
▁parties	-10.8797
▁fondly	-10.8799
▁strict	-10.8799
▁cowardly	-10.8799
▁betide	-10.88
▁eight	-10.88
▁parcel	-10.88
ft	-10.8802
▁milk	-10.8803
▁Break	-10.8803
▁beams	-10.8804
▁page	-10.8805
▁spread	-10.8806
▁dash	-10.8808
▁beaten	-10.8808
c	-10.8808
▁difference	-10.8809
▁burden	-10.881
▁robes	-10.881
▁Tribunes	-10.881
▁linger	-10.881
▁goddess	-10.8812
▁suddenly	-10.8812
▁cheerly	-10.8812
▁condemned	-10.8813
seeming	-10.8814
▁Yield	-10.8814
▁wisely	-10.8815
▁Lead	-10.8816
▁tailor	-10.8819
▁starve	-10.8819
▁kisses	-10.8821
▁chosen	-10.8823
▁frost	-10.8824
▁boldly	-10.8825
▁nobleness	-10.8829
ounds	-10.883
▁seated	-10.8831
bert	-10.8832
▁mould	-10.8841
▁captive	-10.8843
▁parents	-10.8845
our	-10.8849
▁amorous	-10.8852
▁wring	-10.8853
▁pent	-10.8857
▁tree	-10.8858
▁crook	-10.8861
▁flattering	-10.8861
▁amends	-10.8863
▁begg	-10.8868
k	-10.8868
▁keys	-10.8868
▁witch	-10.8868
▁musicians	-10.8874
▁notice	-10.8874
▁retired	-10.888
▁ourself	-10.888
▁tired	-10.8884
▁support	-10.8887
▁importune	-10.889
▁sounded	-10.8892
▁grieved	-10.8894
▁waked	-10.8899
▁landed	-10.8906
▁rescue	-10.891
▁seized	-10.8915
▁Shame	-10.8918
▁weapons	-10.8919
▁goose	-10.8924
▁Touch	-10.8924
▁fel	-10.8926
▁bay	-10.8926
▁Virtu	-10.8933
▁search	-10.8934
▁backs	-10.8936
▁flat	-10.8941
▁designs	-10.8963
▁lions	-10.8967
▁soil	-10.8969
▁earthly	-10.8975
▁sentenced	-10.898
▁lovers	-10.8983
▁gifts	-10.8985
▁grieves	-10.8987
▁strip	-10.899
▁learned	-10.9002
▁brains	-10.9006
▁bastards	-10.9011
▁troubled	-10.9013
▁pr	-10.9028
▁ministers	-10.903
▁sweetly	-10.9034
▁lists	-10.9038
▁vouch	-10.9039
▁tricks	-10.9043
▁False	-10.9046
▁holding	-10.9048
▁dearer	-10.9049
▁neighbours	-10.9053
▁couldst	-10.9061
▁tied	-10.9063
▁storms	-10.9064
▁purp	-10.9068
▁lambs	-10.9072
▁except	-10.9076
▁fingers	-10.9076
ear	-10.9079
▁ships	-10.9082
▁helm	-10.9084
▁Sit	-10.9088
▁anchor	-10.9093
▁height	-10.9096
▁farm	-10.9103
▁severe	-10.9112
▁Fit	-10.9117
▁cat	-10.9118
▁fur	-10.9124
▁ended	-10.9125
▁marvell	-10.9157
▁Hi	-10.9158
▁winters	-10.9162
▁sold	-10.9188
▁CAR	-10.9191
repare	-10.9209
▁undo	-10.9215
▁favours	-10.9236
▁towns	-10.9257
▁takes	-10.926
▁fat	-10.9271
EO	-10.931
MOR	-10.9314
▁tops	-10.9316
▁physic	-10.9317
▁se	-10.9318
G	-10.9367
▁Alb	-10.9374
▁st	-10.9395
▁saved	-10.9408
uck	-10.9432
▁guide	-10.9471
▁Sly	-10.9473
▁ga	-10.9475
▁Shal	-10.9479
▁clock	-10.9491
liness	-10.9507
bove	-10.9511
▁takest	-10.9514
▁Whe	-10.9516
iness	-10.9553
▁den	-10.9559
▁gra	-10.959
▁beats	-10.9596
▁elde	-10.9608
▁livest	-10.9619
▁aged	-10.964
any	-10.9656
▁pot	-10.9676
▁sole	-10.9677
ors	-10.9686
▁fift	-10.9692
▁sides	-10.9712
tain	-10.9713
▁mere	-10.9739
▁cozen	-10.9742
▁wears	-10.9758
▁revenges	-10.9761
z	-10.9769
▁contents	-10.9777
▁noon	-10.9781
▁rouse	-10.9801
de	-10.9807
▁gre	-10.9855
cursed	-10.9872
▁speaking	-10.9878
What	-10.9887
▁sounds	-10.9902
ey	-10.9911
gging	-10.9913
▁ca	-10.9928
▁Offic	-10.9991
▁villains	-10.9992
rest	-11.0013
um	-11.0033
bear	-11.0055
▁strain	-11.0069
▁value	-11.0074
▁swears	-11.0085
▁pro	-11.0095
▁Part	-11.0128
▁par	-11.0136
dst	-11.0141
▁vent	-11.0179
▁ice	-11.0184
▁le	-11.0185
empt	-11.0192
▁falls	-11.0227
CU	-11.023
▁knowing	-11.0273
fellow	-11.0286
horse	-11.0289
Citizens	-11.0291
▁mew	-11.0298
longs	-11.032
▁ape	-11.0363
scape	-11.0368
▁Cl	-11.038
back	-11.0388
late	-11.039
▁slight	-11.0402
▁deaths	-11.0412
bury	-11.0438
work	-11.0444
▁curs	-11.0449
water	-11.0453
ot	-11.0466
▁mal	-11.0482
▁wave	-11.0486
urst	-11.0507
▁ale	-11.0528
trees	-11.0542
urderer	-11.0548
lowly	-11.0557
shine	-11.0561
mong	-11.0564
▁De	-11.0577
got	-11.0579
▁ward	-11.0582
▁sum	-11.0583
▁require	-11.0592
▁thankful	-11.0608
▁orator	-11.0609
▁helps	-11.062
▁cloud	-11.0621
▁strife	-11.0629
▁surfeit	-11.063
▁quarter	-11.0632
▁conqueror	-11.0635
He	-11.064
▁lamentation	-11.0642
▁spider	-11.0646
long	-11.0647
▁Volscian	-11.0649
▁musician	-11.0652
▁tutor	-11.0653
▁window	-11.0661
▁key	-11.0661
pothecary	-11.0663
▁methought	-11.0673
▁Thank	-11.0675
arry	-11.0694
▁inquire	-11.0699
▁discharge	-11.0702
▁divide	-11.0703
▁sat	-11.0718
rong	-11.0719
▁bas	-11.072
nder	-11.0721
▁nigh	-11.0723
▁beguile	-11.0725
▁whisper	-11.0751
illy	-11.0751
▁mask	-11.0752
▁monarch	-11.0754
▁prate	-11.0759
▁manifest	-11.0759
▁arrest	-11.0759
▁distress	-11.0759
▁compound	-11.0759
▁beside	-11.0763
▁instant	-11.0764
▁palm	-11.0767
▁nice	-11.0767
▁Read	-11.0767
▁silk	-11.0768
▁chose	-11.0771
ieutenant	-11.0771
▁Christ	-11.0773
Patrician	-11.0773
▁Antium	-11.0773
▁Ariel	-11.0773
▁Brittany	-11.0773
▁Carthage	-11.0773
▁Confess	-11.0773
▁Jupiter	-11.0773
▁Neptune	-11.0773
▁Pembroke	-11.0773
▁Scotland	-11.0773
▁Sycorax	-11.0773
▁Tarpeian	-11.0773
▁Tewksbury	-11.0773
▁boisterous	-11.0773
▁calamity	-11.0773
▁climate	-11.0773
▁conclusion	-11.0773
▁harbour	-11.0773
▁humility	-11.0773
▁innocence	-11.0773
▁likelihood	-11.0773
▁mischief	-11.0773
▁pilot	-11.0773
▁pocket	-11.0773
▁prophecy	-11.0773
▁rebuke	-11.0773
▁redemption	-11.0773
▁shrink	-11.0773
▁Antonio	-11.0773
▁Bishop	-11.0773
▁Condemn	-11.0773
▁Measure	-11.0773
▁acknowledge	-11.0773
▁disturb	-11.0773
▁harvest	-11.0773
▁lunatic	-11.0773
▁model	-11.0773
▁nightingale	-11.0773
▁spectacle	-11.0773
▁vulgar	-11.0773
▁Tunis	-11.0773
▁lenity	-11.0773
▁plebeians	-11.0773
▁puissan	-11.0773
▁split	-11.0773
▁insult	-11.0773
▁moiety	-11.0773
▁pupil	-11.0773
▁imagination	-11.0773
▁Six	-11.0773
▁displeasure	-11.0773
▁midwife	-11.0773
▁nourish	-11.0773
▁crept	-11.0773
▁consequence	-11.0773
▁bliss	-11.0773
▁harmony	-11.0773
▁popular	-11.0773
▁drift	-11.0773
▁sacrament	-11.0773
▁marshal	-11.0773
▁recreant	-11.0773
▁safeguard	-11.0773
▁rumour	-11.0773
▁Answer	-11.0773
▁ceremonious	-11.0773
▁cloak	-11.0773
▁confidence	-11.0773
▁imprison	-11.0773
▁Walter	-11.0773
▁bereft	-11.0773
▁familiar	-11.0773
▁confusion	-11.0773
▁gaunt	-11.0773
▁forehead	-11.0773
▁stiff	-11.0773
▁veil	-11.0773
▁afeard	-11.0773
▁prating	-11.0773
▁decay	-11.0773
▁Isabella	-11.0773
▁oppression	-11.0773
▁harlot	-11.0773
▁Cupid	-11.0774
▁Attend	-11.0774
▁unlawful	-11.0774
▁correction	-11.0774
▁prosperity	-11.0774
▁otherwise	-11.0774
▁groom	-11.0774
▁eternal	-11.0774
▁loyalty	-11.0774
▁serious	-11.0774
▁Troy	-11.0774
▁unseen	-11.0774
▁impeach	-11.0774
▁perjured	-11.0774
▁compassion	-11.0774
▁damnable	-11.0774
▁compare	-11.0774
▁corruption	-11.0774
▁whoreson	-11.0775
▁dine	-11.0775
▁prophesy	-11.0775
▁blue	-11.0775
▁schoolmaster	-11.0775
▁exceed	-11.0775
▁sca	-11.0775
▁Command	-11.0775
▁moving	-11.0775
▁royalties	-11.0775
▁device	-11.0775
▁forsooth	-11.0775
▁Kent	-11.0776
▁mistaking	-11.0776
▁perfection	-11.0776
▁bounty	-11.0776
▁contain	-11.0776
▁straw	-11.0776
▁steep	-11.0776
▁sufferance	-11.0776
▁visitation	-11.0776
▁dancing	-11.0776
▁wedded	-11.0776
▁unruly	-11.0776
▁downfall	-11.0777
▁pursuit	-11.0777
▁hinder	-11.0777
oor	-11.0778
▁coast	-11.0778
▁vial	-11.0778
▁sensible	-11.0778
▁grim	-11.0778
▁moody	-11.0778
▁venture	-11.0778
▁branches	-11.0778
▁heinous	-11.0778
▁lick	-11.0779
▁rushes	-11.0779
▁dram	-11.0779
▁gather	-11.0779
▁drunkard	-11.0779
▁Talk	-11.0779
▁gust	-11.078
▁combat	-11.078
▁front	-11.078
▁destiny	-11.078
▁mouse	-11.078
▁confession	-11.0781
▁dislike	-11.0781
▁Foul	-11.0781
▁despised	-11.0782
▁dumb	-11.0782
▁midst	-11.0782
▁Thyself	-11.0782
▁smiling	-11.0782
▁aloud	-11.0784
▁grass	-11.0784
▁blaze	-11.0784
▁nimble	-11.0785
shearing	-11.0785
▁Smile	-11.0785
▁injustice	-11.0785
▁Suppose	-11.0786
▁advocate	-11.0786
▁wonderful	-11.0786
▁cords	-11.0787
▁kites	-11.0787
▁glasses	-11.0788
▁smallest	-11.0788
▁Ready	-11.0788
▁brotherhood	-11.0789
▁sitting	-11.0789
▁statutes	-11.0789
▁bald	-11.0789
▁grand	-11.0789
▁trifles	-11.0789
▁cushion	-11.079
▁print	-11.079
▁tenderness	-11.0791
▁murderous	-11.0791
▁infected	-11.0793
▁Qu	-11.0794
▁leaden	-11.0795
▁sack	-11.0795
▁whispering	-11.0795
▁stark	-11.0795
▁whatsoever	-11.0796
▁jar	-11.0796
▁history	-11.0796
▁woeful	-11.0797
▁adverse	-11.0797
▁requite	-11.0797
▁mustard	-11.0799
▁leaving	-11.0801
▁leap	-11.0801
▁ashes	-11.0801
▁cl	-11.0803
▁lief	-11.0805
▁arise	-11.0805
▁cool	-11.0805
▁fla	-11.0809
▁dim	-11.081
antic	-11.0811
▁branch	-11.0811
▁bail	-11.0812
▁pit	-11.0814
▁folks	-11.0815
▁ornaments	-11.0816
wice	-11.0817
▁confessor	-11.0817
▁faction	-11.0818
▁Content	-11.0819
▁dragon	-11.0821
▁blade	-11.0821
▁plate	-11.0821
▁choke	-11.0823
▁doubtful	-11.0823
▁quake	-11.0824
▁Enforce	-11.0825
▁blushing	-11.0825
▁taunts	-11.0825
▁roof	-11.0825
▁baby	-11.0825
▁hangman	-11.0826
▁wrinkled	-11.0827
▁heel	-11.0828
▁advanced	-11.0828
NC	-11.0828
▁devour	-11.0828
▁growth	-11.0831
▁considered	-11.0832
▁hag	-11.0834
▁Join	-11.0834
▁dug	-11.0837
▁trow	-11.0838
▁covert	-11.0838
▁mates	-11.0838
▁mildly	-11.084
▁dined	-11.0843
▁flock	-11.0844
▁bait	-11.0844
▁yare	-11.0844
▁proceedings	-11.0846
▁rope	-11.0846
ge	-11.0847
▁mourning	-11.0848
▁deceive	-11.0849
▁flatterers	-11.0849
▁river	-11.085
▁sunder	-11.085
▁haunt	-11.0852
▁cave	-11.0853
▁render	-11.0857
▁incensed	-11.0857
▁stol	-11.0861
▁creep	-11.0864
▁luck	-11.0864
▁Arm	-11.0866
▁nails	-11.0868
▁dealing	-11.0872
▁changing	-11.0873
▁pitied	-11.0877
▁murdered	-11.0878
▁apart	-11.088
▁entreaty	-11.0881
▁drinking	-11.0881
▁bishop	-11.0883
▁speedy	-11.0885
▁extremes	-11.0886
▁ripen	-11.0887
▁igno	-11.0892
▁rend	-11.0893
▁Volscians	-11.0899
▁rein	-11.0903
▁Run	-11.0903
▁disgraced	-11.0904
▁suffering	-11.0904
▁lodged	-11.0905
▁peer	-11.0915
▁reported	-11.0915
▁pett	-11.0917
▁bra	-11.092
sheathe	-11.092
▁enforced	-11.0922
▁provided	-11.0924
▁throng	-11.0931
▁path	-11.0932
▁worms	-11.0932
▁tire	-11.0933
▁pour	-11.0937
▁mi	-11.0945
custom	-11.0948
ister	-11.0952
▁minutes	-11.0954
▁stocks	-11.0955
▁angels	-11.096
▁learning	-11.096
dropp	-11.0963
▁deer	-11.0965
▁wronged	-11.0966
▁yielding	-11.0966
▁Kind	-11.0967
▁endured	-11.0967
▁Kill	-11.0969
twould	-11.097
▁crying	-11.0974
▁Ned	-11.0976
▁shot	-11.0981
▁pate	-11.0984
▁Fall	-11.0985
▁torn	-11.0988
▁avoided	-11.0989
▁framed	-11.0993
▁dearth	-11.0997
▁toads	-11.1003
▁lesson	-11.1005
▁infer	-11.1006
▁doublet	-11.1009
▁Teach	-11.1012
▁aims	-11.1019
▁tut	-11.1022
▁crows	-11.1028
▁flay	-11.1029
▁lads	-11.1041
▁Writ	-11.1043
▁Cut	-11.1045
▁spurs	-11.1051
▁host	-11.1054
your	-11.1054
tardy	-11.1061
▁intents	-11.1069
▁thereto	-11.1077
▁sap	-11.1084
ps	-11.1094
▁plants	-11.11
end	-11.1101
▁feebl	-11.1102
▁weal	-11.1106
▁roses	-11.1107
▁talking	-11.1127
▁shoulders	-11.113
▁fox	-11.1133
BI	-11.1134
▁scape	-11.1135
some	-11.1137
▁commends	-11.1142
▁numbers	-11.1146
▁race	-11.1176
▁tie	-11.1182
▁springs	-11.1201
▁trees	-11.1202
▁eag	-11.1203
▁Capulets	-11.1204
▁falling	-11.1206
▁file	-11.1219
locks	-11.122
▁event	-11.1224
came	-11.1228
▁shown	-11.123
▁reigns	-11.1232
▁beggars	-11.1238
▁score	-11.1242
▁asking	-11.1255
▁evils	-11.1268
▁din	-11.1285
▁du	-11.1291
▁whore	-11.1304
▁hedge	-11.1326
owl	-11.1349
ated	-11.1352
▁inch	-11.1352
▁secrets	-11.1363
aking	-11.1364
▁warn	-11.1371
▁impress	-11.1375
▁permit	-11.1376
▁strait	-11.1395
▁diest	-11.14
▁feasts	-11.1417
▁knocks	-11.1426
▁acts	-11.143
▁hill	-11.1434
▁ranco	-11.1436
▁chances	-11.1474
▁fl	-11.1479
▁moe	-11.1513
▁crab	-11.1524
▁pine	-11.1533
▁fully	-11.1546
▁frank	-11.1554
▁appears	-11.1555
▁breasts	-11.1557
▁li	-11.1559
▁exact	-11.156
▁believed	-11.1591
▁betwi	-11.1595
▁ugl	-11.1603
▁actor	-11.1626
▁Weep	-11.1634
.--	-11.1636
▁stays	-11.1637
co	-11.1688
▁Sp	-11.1696
▁Bad	-11.1726
▁vassal	-11.1728
▁bosoms	-11.173
▁murders	-11.1735
▁meal	-11.1737
ca	-11.1737
MI	-11.1742
▁bit	-11.1743
love	-11.1754
▁inc	-11.1759
▁trod	-11.1759
arm	-11.1761
▁suppose	-11.1762
▁lamp	-11.1763
▁devils	-11.1765
app	-11.1766
▁ab	-11.179
od	-11.181
dding	-11.1813
▁herein	-11.1835
▁SA	-11.1835
▁Commit	-11.1839
▁hum	-11.1855
▁Di	-11.1857
▁lace	-11.1871
▁Q	-11.1901
TR	-11.1903
▁dame	-11.1906
▁Montagues	-11.193
press	-11.1959
▁charges	-11.1978
▁start	-11.1978
▁commands	-11.2024
ink	-11.2031
▁unwilling	-11.2045
▁bench	-11.2055
ray	-11.2086
▁Curse	-11.2094
▁persons	-11.2096
▁fu	-11.2096
▁marr	-11.2106
▁mu	-11.212
▁nights	-11.2137
ick	-11.2138
id	-11.2155
lier	-11.2161
ace	-11.2165
▁wa	-11.2171
sion	-11.2181
good	-11.2202
▁breaks	-11.2214
▁looker	-11.2222
▁Intend	-11.223
tting	-11.2256
ub	-11.2258
▁bo	-11.2269
▁bu	-11.2274
right	-11.2328
'?	-11.2332
;'	-11.234
▁admit	-11.2353
rish	-11.2375
▁troubl	-11.2376
ible	-11.2379
▁Man	-11.2383
▁bri	-11.2387
RS	-11.2393
headed	-11.2413
▁ma	-11.242
ving	-11.2431
▁fan	-11.2431
▁tra	-11.2462
greed	-11.2475
MIL	-11.2488
▁nap	-11.2513
▁bill	-11.2515
carries	-11.2516
▁bi	-11.2517
▁scare	-11.2527
▁earl	-11.2537
▁Lam	-11.2544
eantime	-11.255
▁commit	-11.256
ties	-11.2591
ome	-11.2604
lor	-11.2631
pe	-11.2642
▁beseem	-11.2647
lling	-11.2648
hall	-11.2649
iest	-11.2649
head	-11.2656
▁Mak	-11.2657
ig	-11.2676
This	-11.2696
▁runn	-11.2703
aken	-11.2708
rge	-11.2768
dnes	-11.2787
ail	-11.2793
ol	-11.2806
▁divines	-11.2809
aged	-11.2816
▁noted	-11.2832
▁Add	-11.284
▁hoar	-11.2862
lack	-11.2865
ament	-11.2866
▁lour	-11.2868
▁eng	-11.2868
hand	-11.2879
▁mus	-11.2881
▁victor	-11.2886
▁tend	-11.2892
arl	-11.291
ere	-11.2925
specially	-11.2936
▁Betw	-11.2937
▁thousands	-11.2939
▁happi	-11.2944
ttering	-11.2946
▁causes	-11.2964
together	-11.297
▁clean	-11.2972
cast	-11.2974
glass	-11.2976
grown	-11.2977
▁needle	-11.2983
RSE	-11.2991
male	-11.2998
▁Deserve	-11.3001
▁dep	-11.3043
stone	-11.3047
cur	-11.3061
pen	-11.3066
run	-11.3101
kin	-11.3102
▁chop	-11.3118
▁function	-11.3127
▁shriek	-11.3127
▁picture	-11.3127
▁jade	-11.3128
holds	-11.3129
tied	-11.3131
▁bleed	-11.3132
▁herald	-11.3142
▁nettle	-11.3144
▁council	-11.3146
▁rebel	-11.3148
▁abhor	-11.3149
▁wheel	-11.315
▁street	-11.3155
▁tru	-11.3156
▁gape	-11.3169
▁cr	-11.317
sign	-11.3173
▁tail	-11.3189
▁divorce	-11.3191
▁token	-11.3191
▁coal	-11.3193
▁nail	-11.3194
▁subdue	-11.32
▁disguise	-11.3201
▁advance	-11.3202
▁liar	-11.3203
▁wrinkle	-11.3204
▁tribune	-11.3207
▁Jo	-11.3209
▁create	-11.321
fits	-11.3211
▁achieve	-11.3218
stead	-11.3229
▁dissemble	-11.323
▁parent	-11.3232
▁sacrifice	-11.3232
▁gap	-11.3236
warm	-11.3242
▁allay	-11.3242
ind	-11.3256
▁flint	-11.3257
▁coz	-11.3261
▁heigh	-11.3263
▁thirst	-11.3263
▁Name	-11.3265
▁prefer	-11.3266
stern	-11.3266
▁drive	-11.3267
▁befal	-11.3269
shire	-11.3269
▁Place	-11.327
▁forsake	-11.3271
▁correct	-11.3272
▁Advance	-11.3273
▁Affection	-11.3273
▁Antiates	-11.3273
▁Calais	-11.3273
▁Christopher	-11.3273
▁Cleomenes	-11.3273
▁Doricles	-11.3273
▁Elizabeth	-11.3273
▁Emilia	-11.3273
▁Florizel	-11.3273
▁Gregory	-11.3273
▁Hercules	-11.3273
▁Knock	-11.3273
▁Lodowick	-11.3273
▁Phaethon	-11.3273
▁Phoebus	-11.3273
▁Rescue	-11.3273
▁Tarquin	-11.3273
▁Welshmen	-11.3273
▁appellant	-11.3273
▁apprehension	-11.3273
▁assault	-11.3273
▁baggage	-11.3273
▁bankrupt	-11.3273
▁calumny	-11.3273
▁caparison	-11.3273
▁chastity	-11.3273
▁controversy	-11.3273
▁diadem	-11.3273
▁entrails	-11.3273
▁festival	-11.3273
▁gulf	-11.3273
▁horror	-11.3273
▁impediment	-11.3273
▁inconstant	-11.3273
▁indifferent	-11.3273
▁insolence	-11.3273
▁jocund	-11.3273
▁mariners	-11.3273
▁mirror	-11.3273
▁muffle	-11.3273
▁necessary	-11.3273
▁notwithstanding	-11.3273
▁penitence	-11.3273
▁persuasion	-11.3273
▁precedent	-11.3273
▁prerogative	-11.3273
▁remedies	-11.3273
▁repetition	-11.3273
▁resolute	-11.3273
▁rheum	-11.3273
▁saucy	-11.3273
▁scholar	-11.3273
▁solicit	-11.3273
▁strumpet	-11.3273
▁sugar	-11.3273
▁suppliant	-11.3273
▁supreme	-11.3273
▁terrible	-11.3273
▁territories	-11.3273
▁testimony	-11.3273
▁treachery	-11.3273
▁villany	-11.3273
▁vineyard	-11.3273
▁Greece	-11.3273
▁Twenty	-11.3273
▁amazement	-11.3273
▁bulk	-11.3273
▁climb	-11.3273
▁contradict	-11.3273
▁cordial	-11.3273
▁discords	-11.3273
▁expedition	-11.3273
▁impatient	-11.3273
▁imperial	-11.3273
▁infringe	-11.3273
▁niece	-11.3273
▁turtle	-11.3273
▁witchcraft	-11.3273
▁Overdone	-11.3273
▁impatience	-11.3273
▁magic	-11.3273
▁tragic	-11.3273
▁earldom	-11.3273
▁famish	-11.3273
▁obtain	-11.3273
▁Mariner	-11.3273
▁Renown	-11.3273
▁centre	-11.3273
▁trencher	-11.3273
▁aloof	-11.3273
▁hurried	-11.3273
▁privy	-11.3273
▁Dispatch	-11.3273
▁Fifth	-11.3273
▁follies	-11.3273
▁raiment	-11.3273
▁shelter	-11.3273
▁composition	-11.3273
▁miseries	-11.3273
▁prunes	-11.3273
▁pledge	-11.3273
▁division	-11.3273
▁merriment	-11.3273
▁napkin	-11.3273
▁regiment	-11.3273
▁denial	-11.3273
▁inclination	-11.3273
▁entire	-11.3273
▁lineament	-11.3273
▁pestilence	-11.3273
▁reprieve	-11.3273
▁ashore	-11.3273
▁powder	-11.3273
▁posterity	-11.3273
▁ebb	-11.3273
▁farthest	-11.3273
▁pattern	-11.3273
▁ragged	-11.3273
▁tinker	-11.3273
▁Enough	-11.3273
▁capital	-11.3273
▁congeal	-11.3273
▁chastisement	-11.3273
▁resort	-11.3273
▁debase	-11.3273
▁homage	-11.3273
▁staff	-11.3273
▁whistle	-11.3273
▁spilt	-11.3273
▁puff	-11.3273
▁Wales	-11.3273
▁Francis	-11.3273
▁shift	-11.3273
▁hazel	-11.3273
▁Desire	-11.3273
▁beetle	-11.3273
▁treble	-11.3273
▁blister	-11.3273
▁lungs	-11.3273
▁distinguish	-11.3273
▁wolves	-11.3273
▁headstrong	-11.3274
▁bottle	-11.3274
▁awry	-11.3274
▁reproof	-11.3274
▁chamberlain	-11.3274
▁disorder	-11.3274
▁choleric	-11.3274
▁merciful	-11.3274
▁digest	-11.3274
▁planet	-11.3274
▁buzzard	-11.3274
▁relieve	-11.3274
▁relish	-11.3274
▁beware	-11.3274
▁garter	-11.3274
▁assistance	-11.3274
▁canker	-11.3274
▁graft	-11.3274
▁freeze	-11.3274
▁Repent	-11.3274
▁grub	-11.3274
▁cowardice	-11.3274
▁contrive	-11.3274
▁message	-11.3274
▁pastime	-11.3274
▁Percy	-11.3274
▁merrily	-11.3274
▁limb	-11.3274
▁bribe	-11.3275
▁unfeigned	-11.3275
▁solemnity	-11.3275
▁utterance	-11.3275
▁perjury	-11.3275
▁error	-11.3275
▁Hector	-11.3275
▁canopy	-11.3275
▁mutiny	-11.3275
▁society	-11.3275
▁lieutenant	-11.3275
▁bodes	-11.3276
▁admitted	-11.3276
▁pedant	-11.3276
▁Honest	-11.3276
▁uncertain	-11.3276
▁brass	-11.3276
▁loins	-11.3276
▁tribute	-11.3276
▁hearken	-11.3276
▁jealousies	-11.3276
▁elsewhere	-11.3277
▁injuries	-11.3277
▁Obey	-11.3277
▁region	-11.3277
▁liqu	-11.3277
▁swim	-11.3277
▁wra	-11.3277
▁forgiveness	-11.3278
▁crew	-11.3278
▁sisterhood	-11.3278
▁summon	-11.3278
▁highway	-11.3278
▁gainsay	-11.3278
▁gasp	-11.3278
▁worthily	-11.3278
▁confer	-11.3278
▁Provide	-11.3279
▁link	-11.3279
▁medicine	-11.3279
▁ladyship	-11.3279
randam	-11.328
▁silken	-11.328
▁wilful	-11.328
▁cheerfully	-11.3281
▁mockery	-11.3281
▁replied	-11.3281
▁High	-11.3282
▁plaints	-11.3282
▁loose	-11.3282
▁naught	-11.3282
▁reckoning	-11.3283
ficial	-11.3283
▁glories	-11.3283
▁transported	-11.3283
▁saddle	-11.3283
▁Just	-11.3283
▁gait	-11.3283
▁Arise	-11.3283
▁profession	-11.3283
▁gaol	-11.3284
▁governor	-11.3284
▁advertised	-11.3285
ia	-11.3285
▁blank	-11.3285
▁solely	-11.3285
▁Sixth	-11.3286
▁baseness	-11.3286
▁stinking	-11.3286
▁undergo	-11.3287
▁unborn	-11.3287
▁Brave	-11.3288
▁bandy	-11.3288
▁rival	-11.3288
use	-11.3288
▁sands	-11.3289
▁invention	-11.3289
▁idly	-11.3289
Proud	-11.329
▁accomplish	-11.329
▁stem	-11.329
▁distressed	-11.3291
▁foil	-11.3291
▁apply	-11.3291
▁yellow	-11.3291
▁stirring	-11.3292
▁gaoler	-11.3292
▁Near	-11.3292
▁helmet	-11.3293
▁square	-11.3293
▁poisonous	-11.3293
▁publicly	-11.3294
▁Lovel	-11.3294
▁usurer	-11.3295
▁overthrow	-11.3296
▁rode	-11.3296
▁herbs	-11.3299
▁wenches	-11.3299
▁footman	-11.3299
▁ambition	-11.3299
▁succ	-11.33
▁slack	-11.33
awful	-11.33
ppet	-11.3301
▁warning	-11.3301
▁salute	-11.3302
▁Back	-11.3303
▁roundly	-11.3303
▁madman	-11.3305
▁hunger	-11.3306
▁restored	-11.3306
▁moan	-11.3306
▁tried	-11.3307
▁witnesses	-11.3309
▁boon	-11.3309
▁frighted	-11.331
ATHA	-11.3311
▁weighty	-11.3311
▁beads	-11.3312
▁linen	-11.3315
▁louder	-11.3315
▁darken	-11.3315
▁quaint	-11.3316
▁geld	-11.3316
▁affright	-11.3319
▁tackle	-11.3321
▁fitted	-11.3322
stool	-11.3323
▁rites	-11.3323
▁beastly	-11.3326
▁spices	-11.3326
▁merely	-11.3327
▁restraint	-11.3327
▁millions	-11.3329
▁skulls	-11.3329
▁feeding	-11.333
▁arch	-11.333
▁shorten	-11.333
ORI	-11.3331
▁grandfather	-11.3331
▁jump	-11.3331
▁sung	-11.3332
▁counted	-11.3333
▁Belike	-11.3335
ainst	-11.3337
▁candle	-11.3338
▁shoot	-11.3338
▁lineal	-11.3338
▁shout	-11.3339
▁plent	-11.3341
▁Player	-11.3342
▁chest	-11.3342
▁created	-11.3344
▁extremest	-11.3344
▁La	-11.3344
▁crest	-11.3345
▁mellow	-11.3345
▁disguised	-11.3345
▁achieved	-11.3345
gone	-11.3346
▁Juli	-11.3348
▁mole	-11.3349
▁ensue	-11.3349
▁intended	-11.335
▁safer	-11.3354
▁chains	-11.3356
▁knit	-11.3356
istake	-11.3357
▁mantle	-11.3357
▁lightness	-11.3359
▁Suc	-11.3359
▁tainted	-11.3359
▁gloves	-11.3361
ND	-11.3361
▁strongly	-11.3362
▁coffin	-11.3363
▁divided	-11.3363
▁bush	-11.3364
▁whipt	-11.3365
▁discharged	-11.3366
▁hole	-11.3367
▁threats	-11.3367
▁waken	-11.3367
▁required	-11.3368
ingly	-11.3369
▁rising	-11.3371
▁broad	-11.3375
▁understanding	-11.3375
▁sinew	-11.3377
▁nobleman	-11.3377
▁dial	-11.3379
▁coals	-11.338
▁begot	-11.3382
▁breeding	-11.3388
▁qu	-11.3388
▁preserved	-11.3388
▁coldly	-11.339
▁wisest	-11.3392
▁Forgive	-11.3392
▁appeared	-11.3394
▁deeply	-11.3395
▁tenderly	-11.3396
▁concluded	-11.3398
▁stooping	-11.3398
▁rats	-11.3403
swol	-11.3405
▁bleeds	-11.3405
▁pond	-11.3405
▁drows	-11.3409
▁arriv	-11.3412
▁siege	-11.3412
▁showers	-11.3416
▁impose	-11.3417
▁Verily	-11.3418
▁halt	-11.342
▁strengthen	-11.3424
▁delivered	-11.3424
▁pronounced	-11.3428
she	-11.3434
▁falsely	-11.3436
▁spiders	-11.3438
▁events	-11.344
▁requires	-11.3441
▁thorns	-11.3444
▁hencefor	-11.3449
▁returned	-11.3453
▁afoot	-11.3455
ton	-11.3457
▁councils	-11.3459
▁mocking	-11.346
▁bank	-11.3472
▁tower	-11.3472
▁sued	-11.3473
▁circumstances	-11.3475
▁greetings	-11.3477
▁sped	-11.348
▁demi	-11.3482
▁spear	-11.3488
▁Bu	-11.3495
▁mast	-11.3498
▁hi	-11.3501
▁lightly	-11.3504
▁turned	-11.3507
▁fasting	-11.3515
▁embraced	-11.3516
▁doves	-11.3522
▁Gold	-11.3522
▁yard	-11.3522
▁scale	-11.3523
▁amend	-11.3524
▁da	-11.3528
▁agreed	-11.3528
ush	-11.3531
▁lane	-11.3538
▁rewards	-11.3547
▁sleepy	-11.3552
▁breathes	-11.3554
lt	-11.3574
onsider	-11.3577
▁sl	-11.358
▁allies	-11.358
▁pounds	-11.3583
ally	-11.3589
▁trembles	-11.3593
▁wh	-11.3593
▁dissen	-11.3597
▁antic	-11.3601
▁contend	-11.3605
▁cop	-11.3614
▁Comes	-11.3619
▁profits	-11.3619
ruly	-11.3619
▁rascals	-11.3622
NS	-11.3622
mas	-11.3623
oth	-11.3623
▁sa	-11.3639
▁knowest	-11.364
▁delights	-11.3644
▁dwells	-11.3651
▁wax	-11.3655
▁degrees	-11.3657
▁painful	-11.3658
▁control	-11.3659
▁hatch	-11.366
▁weed	-11.3662
▁shunn	-11.3667
ex	-11.3667
▁sayest	-11.3669
▁miles	-11.3669
▁fighting	-11.3673
▁barr	-11.3674
▁following	-11.3684
▁dri	-11.3688
▁boun	-11.3692
▁Banish	-11.3692
▁lends	-11.3693
▁gentler	-11.3698
▁wasp	-11.3701
uke	-11.3709
▁named	-11.3713
ins	-11.3729
Be	-11.3736
▁rests	-11.3741
▁dukes	-11.3757
▁bough	-11.3758
▁throats	-11.3764
▁sith	-11.3768
▁conditions	-11.3769
no	-11.3781
▁receives	-11.379
▁demands	-11.3793
x	-11.3794
ily	-11.3796
▁rocks	-11.3803
▁noses	-11.3807
▁bows	-11.3807
▁creatures	-11.3843
▁Fly	-11.3847
▁Jul	-11.3849
▁triumphs	-11.3853
▁minded	-11.3853
▁Mar	-11.3857
▁remiss	-11.3861
▁doors	-11.3865
eeming	-11.3882
tly	-11.3888
▁divers	-11.3904
▁tents	-11.3915
dges	-11.3932
▁frett	-11.3936
▁forces	-11.3946
ending	-11.3954
experienced	-11.3955
▁suffice	-11.3958
▁issued	-11.3975
▁admir	-11.3982
irl	-11.3984
▁paint	-11.3985
▁nobler	-11.3995
▁poll	-11.3997
▁braved	-11.4008
shin	-11.4008
▁Wors	-11.4009
▁couch	-11.4017
▁gli	-11.4019
ver	-11.4021
etween	-11.403
▁com	-11.4039
▁its	-11.4051
▁tax	-11.4053
▁fact	-11.4061
ons	-11.4063
▁box	-11.4067
▁dangers	-11.407
▁scorns	-11.4073
▁dared	-11.4086
stride	-11.4092
▁shower	-11.4103
▁prisoners	-11.4115
▁lame	-11.4119
▁lets	-11.4123
▁stirs	-11.4135
forth	-11.4139
?'	-11.4154
this	-11.4159
▁Imp	-11.4162
▁fade	-11.4164
▁mangle	-11.4188
▁bringing	-11.4197
▁GE	-11.4198
aith	-11.4202
porter	-11.4209
▁ass	-11.4211
annot	-11.4216
▁Fill	-11.4237
▁unpleas	-11.4247
▁White	-11.4247
▁nursed	-11.4253
▁Br	-11.4254
wards	-11.4258
ether	-11.4275
addle	-11.4283
ford	-11.4291
▁rages	-11.4307
▁Star	-11.4307
light	-11.4319
ittle	-11.4322
▁Ti	-11.4333
upper	-11.4336
▁madest	-11.4337
twi	-11.4368
ith	-11.4368
▁bac	-11.4372
▁Force	-11.4382
ial	-11.439
▁fen	-11.4395
▁scour	-11.4395
quicken	-11.4402
▁wonders	-11.4412
ations	-11.4429
song	-11.4436
nce	-11.444
riving	-11.4446
io	-11.4455
potent	-11.4464
▁fits	-11.4465
▁Cast	-11.4478
▁inter	-11.4483
▁gl	-11.4483
room	-11.4503
sby	-11.4528
ock	-11.4544
▁draws	-11.4546
▁ink	-11.4583
▁dissolut	-11.4589
▁clap	-11.4593
▁Sin	-11.4604
▁counsels	-11.4631
xton	-11.4633
apt	-11.4634
wit	-11.4639
▁fate	-11.4644
▁observe	-11.4658
▁rap	-11.4664
▁sm	-11.4666
▁bl	-11.4666
▁str	-11.4676
▁mothers	-11.4718
▁j	-11.472
lain	-11.4722
▁sow	-11.4724
▁widows	-11.4751
The	-11.4756
ueen	-11.4757
▁pen	-11.4767
ouse	-11.4773
▁Hencefor	-11.4781
▁pla	-11.4783
▁string	-11.48
▁Masters	-11.48
egenerate	-11.4817
▁supple	-11.482
▁soar	-11.4829
tious	-11.4832
▁loathe	-11.4844
▁hood	-11.4851
▁graces	-11.4858
ating	-11.4866
do	-11.4876
ham	-11.4877
ior	-11.4877
ried	-11.4884
you	-11.4897
▁depend	-11.4903
▁glo	-11.4918
charitabl	-11.492
▁meed	-11.4949
aster	-11.4962
can	-11.4995
ew	-11.5001
▁exp	-11.5019
▁cu	-11.5022
▁Merc	-11.5034
▁tonight	-11.5034
self	-11.5043
▁sc	-11.5046
▁rent	-11.5047
ie	-11.508
ook	-11.5081
ress	-11.5082
▁rot	-11.5096
op	-11.5117
ions	-11.5119
ning	-11.5157
would	-11.5168
vel	-11.5175
▁awe	-11.5194
well	-11.5195
▁gr	-11.5203
eath	-11.5217
read	-11.5223
hrough	-11.5229
▁caused	-11.5237
▁avouch	-11.5297
mon	-11.5312
awn	-11.5313
hing	-11.5333
ION	-11.538
ans	-11.5386
▁Disp	-11.539
so	-11.5392
ist	-11.5394
rry	-11.5402
▁u	-11.5415
ul	-11.5433
his	-11.5471
▁sleeps	-11.5483
▁butt	-11.5504
▁heavi	-11.5524
jured	-11.5528
▁natures	-11.553
▁fights	-11.555
azed	-11.5586
▁welcomes	-11.5622
▁wo	-11.5626
ro	-11.5642
ption	-11.5674
▁pl	-11.5675
▁bran	-11.5681
▁matters	-11.5696
hold	-11.5696
▁urg	-11.5711
rrow	-11.5721
▁singular	-11.5733
▁fold	-11.5734
▁pull	-11.5735
rous	-11.5736
live	-11.5751
▁chid	-11.5762
taking	-11.5777
▁mo	-11.58
cels	-11.5808
My	-11.5811
ke	-11.5814
▁inherit	-11.5821
ob	-11.5822
maker	-11.585
▁comm	-11.5868
▁chides	-11.5889
▁aspir	-11.5894
ope	-11.5897
▁likes	-11.5898
eyed	-11.5912
▁comforts	-11.5913
dish	-11.5926
▁sex	-11.5932
que	-11.5939
▁rec	-11.5958
▁tu	-11.5963
▁Dares	-11.5964
▁fac	-11.5974
fire	-11.5979
▁desir	-11.5982
▁mutual	-11.6011
▁Al	-11.6014
board	-11.6014
▁feat	-11.6016
▁sever	-11.604
wife	-11.6053
▁fret	-11.6072
fresh	-11.6105
▁imp	-11.6125
▁cousins	-11.6126
there	-11.6127
Good	-11.6135
▁unfi	-11.6147
lock	-11.6162
people	-11.6163
▁hu	-11.6172
▁rat	-11.6176
gracious	-11.618
tree	-11.6185
journ	-11.6188
boy	-11.619
child	-11.6204
▁unrest	-11.6212
pence	-11.6216
Tybalt	-11.6217
Heart	-11.6218
▁unac	-11.6221
new	-11.6231
▁Har	-11.6241
Tell	-11.6254
We	-11.6258
▁suns	-11.6274
favour	-11.6275
piece	-11.6281
book	-11.6285
cock	-11.6288
▁appl	-11.6291
quiet	-11.6291
mouth	-11.6292
advised	-11.6292
wench	-11.6296
fast	-11.6296
rench	-11.6297
vail	-11.6299
school	-11.6306
minded	-11.6307
brain	-11.6308
weary	-11.631
▁pardons	-11.6311
bred	-11.6316
avoided	-11.6316
join	-11.6322
▁rub	-11.6333
▁howl	-11.6349
nut	-11.6362
ox	-11.6363
▁test	-11.6371
comfort	-11.6375
kind	-11.6387
▁slipp	-11.6389
▁decree	-11.6395
▁hop	-11.64
▁Hol	-11.6405
▁robb	-11.6416
tide	-11.6423
stand	-11.6427
bids	-11.6428
sisting	-11.6432
▁fort	-11.6433
son	-11.6441
▁confederate	-11.646
▁magistrate	-11.646
▁champion	-11.646
▁maidenhead	-11.6461
▁dissembl	-11.6461
▁Fellow	-11.6463
▁session	-11.6467
▁threat	-11.6468
▁argument	-11.6473
▁article	-11.6474
▁fitte	-11.6474
▁park	-11.6478
door	-11.6483
doing	-11.6489
siege	-11.6492
▁attorney	-11.6497
▁glove	-11.6497
cquaint	-11.6507
▁egg	-11.6508
▁chain	-11.6514
ding	-11.6519
▁gar	-11.6519
▁revive	-11.6525
▁clothe	-11.6531
bble	-11.6532
▁incense	-11.6537
bod	-11.6538
▁disperse	-11.6539
▁companions	-11.6549
ark	-11.6552
master	-11.6556
▁trim	-11.6562
▁sirs	-11.6563
▁ag	-11.6564
▁Ro	-11.657
▁adder	-11.6572
▁raze	-11.6577
talk	-11.6577
ified	-11.6579
ix	-11.6582
▁broil	-11.6582
▁Ma	-11.659
▁interrupt	-11.6591
▁disinherit	-11.6592
▁transport	-11.6592
deliver	-11.6592
wn	-11.6593
▁Sicil	-11.6595
erwhelm	-11.6597
magine	-11.6599
▁non	-11.6601
▁everlasting	-11.6601
ursuivant	-11.6604
hildren	-11.6604
▁fantastic	-11.6605
▁oppress	-11.6605
▁pilgrim	-11.6605
▁author	-11.6605
▁adulter	-11.6605
▁venge	-11.6606
▁patron	-11.6606
▁Music	-11.6606
▁influence	-11.6606
pertinent	-11.6606
▁Accursed	-11.6606
▁Afric	-11.6606
▁Amazon	-11.6606
▁April	-11.6606
▁Carlisle	-11.6606
▁Chertsey	-11.6606
▁Christendom	-11.6606
▁Direct	-11.6606
▁Divide	-11.6606
▁Environ	-11.6606
▁FRANCISC	-11.6606
▁Guild	-11.6606
▁Hallowmas	-11.6606
▁Jerusalem	-11.6606
▁Leicester	-11.6606
▁Ludlow	-11.6606
▁Montgomery	-11.6606
▁Nathaniel	-11.6606
▁Philip	-11.6606
▁Plashy	-11.6606
▁Ragozine	-11.6606
▁Russia	-11.6606
▁Sebastian	-11.6606
▁Silence	-11.6606
▁Tremble	-11.6606
▁Ulysses	-11.6606
▁Valeria	-11.6606
▁abundance	-11.6606
▁abundant	-11.6606
▁ambassador	-11.6606
▁anguish	-11.6606
▁attentive	-11.6606
▁basilisk	-11.6606
▁bauble	-11.6606
▁beauties	-11.6606
▁carrion	-11.6606
▁ceremony	-11.6606
▁chronicle	-11.6606
▁commodity	-11.6606
▁complete	-11.6606
▁complices	-11.6606
▁compliment	-11.6606
▁conduit	-11.6606
▁conspiracy	-11.6606
▁criminal	-11.6606
▁discredit	-11.6606
▁discreet	-11.6606
▁discretion	-11.6606
▁disloyal	-11.6606
▁effeminate	-11.6606
▁emulation	-11.6606
▁encompass	-11.6606
▁enterprise	-11.6606
▁establish	-11.6606
▁evidence	-11.6606
▁evident	-11.6606
▁fabric	-11.6606
▁homicide	-11.6606
▁horrible	-11.6606
▁infamy	-11.6606
▁infancy	-11.6606
▁infinite	-11.6606
▁innocency	-11.6606
▁intercept	-11.6606
▁intercession	-11.6606
▁inveterate	-11.6606
▁kennel	-11.6606
▁kitchen	-11.6606
▁liberties	-11.6606
▁marquess	-11.6606
▁mathematics	-11.6606
▁necessities	-11.6606
▁obdurate	-11.6606
▁oblivion	-11.6606
▁obsequies	-11.6606
▁obsequious	-11.6606
▁orchard	-11.6606
▁ordinance	-11.6606
▁parasite	-11.6606
▁peasant	-11.6606
▁peradventure	-11.6606
▁precise	-11.6606
▁prodigal	-11.6606
▁prodigy	-11.6606
▁prophecies	-11.6606
▁qualities	-11.6606
▁receipt	-11.6606
▁reckless	-11.6606
▁refuge	-11.6606
▁regreet	-11.6606
▁remote	-11.6606
▁resemblance	-11.6606
▁rosemary	-11.6606
▁security	-11.6606
▁separated	-11.6606
▁steterat	-11.6606
▁stratagems	-11.6606
▁suburbs	-11.6606
▁sulphur	-11.6606
▁survey	-11.6606
▁traffic	-11.6606
▁tumult	-11.6606
▁unawares	-11.6606
▁unreveren	-11.6606
▁vigour	-11.6606
▁villanous	-11.6606
▁yesternight	-11.6606
corpora	-11.6606
▁Stafford	-11.6606
▁acquit	-11.6606
▁blasphem	-11.6606
▁edict	-11.6606
▁engross	-11.6606
▁gnaw	-11.6606
▁rehearse	-11.6606
▁Brandon	-11.6606
▁Destroy	-11.6606
▁Dighton	-11.6606
▁Except	-11.6606
▁countermand	-11.6606
▁election	-11.6606
▁elements	-11.6606
▁garlic	-11.6606
▁ominous	-11.6606
▁relation	-11.6606
▁stubborn	-11.6606
▁vanquish	-11.6606
▁Abbot	-11.6606
▁Judas	-11.6606
▁Strive	-11.6606
▁aqua	-11.6606
▁justify	-11.6606
▁smelt	-11.6606
▁Church	-11.6606
▁Mercury	-11.6606
▁masqu	-11.6606
▁penury	-11.6606
▁slumber	-11.6606
▁Procure	-11.6606
▁enroll	-11.6606
▁ibat	-11.6606
▁imposition	-11.6606
▁ribbon	-11.6606
▁trenches	-11.6606
▁spectators	-11.6606
▁vanish	-11.6606
▁convert	-11.6606
▁ocean	-11.6606
▁proverb	-11.6606
▁vouchsafe	-11.6606
▁dastard	-11.6606
▁treaty	-11.6606
▁Repair	-11.6606
▁bustle	-11.6606
▁endeavour	-11.6606
▁Abhorson	-11.6606
▁authorities	-11.6606
▁gentry	-11.6606
▁lazy	-11.6606
▁threshold	-11.6606
▁timorous	-11.6606
▁visor	-11.6606
ershade	-11.6606
▁Slander	-11.6606
▁burial	-11.6606
▁cradle	-11.6606
▁malignant	-11.6606
▁requital	-11.6606
▁scouts	-11.6606
▁fortunate	-11.6606
▁annoy	-11.6606
▁Pilate	-11.6606
▁battery	-11.6606
▁welkin	-11.6606
▁diligence	-11.6606
ternal	-11.6606
▁forlorn	-11.6606
▁momentary	-11.6606
▁unluckily	-11.6606
▁Condition	-11.6606
▁chaff	-11.6606
▁eloquence	-11.6606
▁discipline	-11.6606
▁profound	-11.6606
▁Latin	-11.6606
▁respite	-11.6606
▁studied	-11.6606
▁fornication	-11.6606
▁trudge	-11.6606
▁behove	-11.6607
▁preparation	-11.6607
▁produce	-11.6607
▁signories	-11.6607
▁fliers	-11.6607
▁mistook	-11.6607
▁Assist	-11.6607
▁surname	-11.6607
▁creation	-11.6607
▁repaid	-11.6607
▁spotted	-11.6607
▁residence	-11.6607
▁cuff	-11.6607
▁preposterous	-11.6607
▁mutinies	-11.6607
▁bargain	-11.6607
▁conspire	-11.6607
▁prescri	-11.6607
▁Relent	-11.6607
▁Juno	-11.6607
▁cedar	-11.6607
▁invite	-11.6607
▁violate	-11.6607
▁ingrateful	-11.6607
▁morsel	-11.6607
▁stirrup	-11.6607
▁Half	-11.6607
▁Quick	-11.6607
▁inheritance	-11.6607
▁verge	-11.6607
▁glister	-11.6607
▁bragg	-11.6607
▁distemper	-11.6607
▁studies	-11.6607
▁adulteress	-11.6607
▁Merely	-11.6607
▁Tiber	-11.6607
▁agony	-11.6607
▁verity	-11.6607
▁enjoin	-11.6607
▁steward	-11.6607
tify	-11.6607
▁advancement	-11.6607
▁Tongue	-11.6607
▁detect	-11.6607
▁severity	-11.6607
▁submission	-11.6607
▁giant	-11.6607
▁beautiful	-11.6607
▁pirate	-11.6607
▁gilt	-11.6607
▁ginger	-11.6607
▁distinctly	-11.6607
▁rabble	-11.6607
▁smack	-11.6607
▁bonnet	-11.6607
▁Fool	-11.6607
▁plume	-11.6608
▁rigour	-11.6608
▁incapable	-11.6608
▁unprovided	-11.6608
▁Castle	-11.6608
▁instance	-11.6608
▁circum	-11.6608
▁Stop	-11.6608
▁heaviness	-11.6608
▁fantastical	-11.6608
▁medlar	-11.6608
▁fickle	-11.6608
▁grove	-11.6608
▁slug	-11.6608
▁agreement	-11.6608
▁appointment	-11.6608
▁overheard	-11.6608
▁cavil	-11.6608
▁Lift	-11.6608
▁vexation	-11.6608
▁Gramerc	-11.6608
▁alteration	-11.6608
▁perchance	-11.6608
▁slide	-11.6608
▁portion	-11.6608
▁Blush	-11.6608
▁miracle	-11.6608
▁scruple	-11.6608
▁knack	-11.6608
▁potion	-11.6609
▁happen	-11.6609
▁acquaintance	-11.6609
▁calf	-11.6609
▁Rich	-11.6609
▁punishment	-11.6609
▁suborn	-11.6609
▁fountain	-11.6609
▁fester	-11.6609
▁Deep	-11.6609
▁Westm	-11.6609
▁swine	-11.6609
▁bud	-11.6609
▁Greek	-11.6609
▁subscribe	-11.6609
▁nuns	-11.6609
▁distill	-11.6609
▁pump	-11.6609
▁deformity	-11.6609
▁Happily	-11.6609
▁Helen	-11.6609
▁bondage	-11.6609
▁generation	-11.6609
▁flag	-11.661
▁butterfly	-11.661
▁immediately	-11.661
▁infirmity	-11.661
▁argosy	-11.661
▁forefather	-11.661
▁Step	-11.661
▁chivalry	-11.661
▁glance	-11.661
▁space	-11.661
▁filthy	-11.661
▁jointure	-11.661
▁Provoke	-11.661
▁belong	-11.661
▁speedily	-11.661
▁hostess	-11.661
▁Stir	-11.661
▁capable	-11.661
▁Pluck	-11.661
▁Alone	-11.661
▁Little	-11.6611
▁Witness	-11.6611
▁Yonder	-11.6611
▁shock	-11.6611
▁foretell	-11.6611
▁interest	-11.6611
▁fowl	-11.6611
▁somebody	-11.6611
▁beginning	-11.6611
▁doleful	-11.6612
▁temperance	-11.6612
▁leanness	-11.6612
▁proceeding	-11.6612
▁qualify	-11.6612
▁propose	-11.6612
▁counterpoise	-11.6612
▁keen	-11.6612
▁wrongfully	-11.6612
▁litter	-11.6612
▁assembly	-11.6612
ville	-11.6613
▁grumbling	-11.6613
▁tumbling	-11.6613
▁offenders	-11.6613
▁senis	-11.6613
▁Nine	-11.6614
▁knavery	-11.6614
▁tatter	-11.6614
▁whipped	-11.6615
▁ordain	-11.6615
▁parle	-11.6615
▁uneven	-11.6615
▁hatches	-11.6615
▁covet	-11.6615
▁cheerful	-11.6616
▁partial	-11.6616
▁knell	-11.6616
▁favourable	-11.6616
▁Dick	-11.6616
▁fellowship	-11.6616
▁Dream	-11.6616
▁adorn	-11.6617
▁shrug	-11.6617
▁worthiest	-11.6617
▁Pale	-11.6617
▁commandment	-11.6617
▁preferment	-11.6618
▁conveyance	-11.6618
▁ungentle	-11.6618
▁Mab	-11.6618
▁womanish	-11.6618
stol	-11.6619
▁unthrift	-11.6619
▁Abate	-11.6619
▁wretchedness	-11.6619
▁hush	-11.6619
cible	-11.662
▁South	-11.662
▁changeling	-11.662
▁mute	-11.662
▁Meaning	-11.6621
▁credul	-11.6621
▁mightily	-11.6621
▁disinherited	-11.6621
▁daylight	-11.6621
▁violet	-11.6622
▁Adam	-11.6622
▁mankind	-11.6622
▁displeased	-11.6623
▁deceased	-11.6623
▁obscured	-11.6623
▁Englishman	-11.6623
▁perused	-11.6623
▁thirsty	-11.6625
▁whereupon	-11.6625
▁prattl	-11.6625
▁Base	-11.6625
▁relent	-11.6626
▁attach	-11.6627
▁hawk	-11.6628
▁sprites	-11.6628
▁dishonest	-11.6628
▁dishes	-11.6629
▁driven	-11.6629
▁gratis	-11.6629
▁skin	-11.6629
▁flinty	-11.6629
▁expostu	-11.6629
▁destin	-11.663
▁road	-11.663
ARL	-11.6631
▁insinuate	-11.6631
▁Turks	-11.6631
▁sober	-11.6631
▁directly	-11.6632
▁pikes	-11.6632
▁manifested	-11.6633
▁prank	-11.6633
▁melted	-11.6633
▁detested	-11.6634
▁clouded	-11.6634
▁bolt	-11.6635
▁abode	-11.6635
▁endow	-11.6635
▁coffers	-11.6636
▁fifty	-11.6636
▁partake	-11.6636
▁Bri	-11.6636
▁ducats	-11.6636
▁handle	-11.6636
▁flatterer	-11.6636
▁conserves	-11.6636
▁mum	-11.6636
refix	-11.6637
▁ancestors	-11.6637
▁exclaims	-11.6637
▁manacles	-11.6637
▁orphans	-11.6637
▁viper	-11.6637
▁minstrels	-11.6637
elected	-11.6637
▁embracements	-11.6638
▁crimes	-11.6638
▁resisted	-11.6638
▁playfellow	-11.6639
▁chafed	-11.6639
▁daring	-11.664
▁brine	-11.664
▁painting	-11.664
▁dimm	-11.664
▁Cro	-11.664
▁Yourself	-11.664
▁Ross	-11.6642
ause	-11.6643
▁gripe	-11.6644
▁bewitch	-11.6644
▁stage	-11.6644
▁gear	-11.6644
▁unity	-11.6645
▁corners	-11.6645
▁Forget	-11.6645
▁amended	-11.6646
▁spell	-11.6648
▁hostil	-11.6649
regia	-11.6649
poke	-11.665
▁wealthy	-11.665
▁misuse	-11.665
▁flout	-11.6651
▁gorge	-11.6651
▁opposed	-11.6652
▁surprised	-11.6652
bridge	-11.6653
▁solace	-11.6654
▁Friend	-11.6654
▁traveller	-11.6655
▁Seal	-11.6655
▁argue	-11.6656
▁approaches	-11.6656
▁sparing	-11.6656
▁stabbed	-11.6657
▁countryman	-11.6658
▁trimm	-11.6658
▁stole	-11.6658
▁size	-11.6659
▁rarest	-11.666
▁laughter	-11.666
▁sle	-11.6661
▁privately	-11.6665
savoury	-11.6665
▁stew	-11.6666
▁impudent	-11.6668
▁nearest	-11.6668
LU	-11.6668
▁wildly	-11.667
scaped	-11.6671
▁unlike	-11.6671
▁breech	-11.6671
▁ascend	-11.6672
▁Spur	-11.6672
▁soften	-11.6673
▁hint	-11.6673
▁bone	-11.6674
▁province	-11.6674
▁beggarly	-11.6674
▁grudge	-11.6674
▁riddle	-11.6674
▁foundation	-11.6674
▁doubtless	-11.6675
▁yew	-11.6676
▁speeches	-11.6676
▁affliction	-11.6677
▁Iron	-11.6677
rch	-11.6678
▁bastardy	-11.6678
▁considering	-11.6678
▁recount	-11.6678
▁ability	-11.6679
▁bier	-11.6679
dyed	-11.668
▁pregnant	-11.6681
reserved	-11.6681
▁peri	-11.6682
▁wan	-11.6683
▁Fell	-11.6684
▁quality	-11.6685
▁gotten	-11.6685
▁curbs	-11.6685
▁dainty	-11.6687
▁posterns	-11.6687
▁charters	-11.6687
ute	-11.6688
▁auster	-11.6688
▁paradise	-11.6688
▁meditation	-11.6688
▁hilt	-11.6688
▁gossips	-11.6688
▁interpret	-11.6689
▁moveables	-11.6689
▁plotted	-11.6689
▁swiftly	-11.6689
▁hounds	-11.6689
▁discovery	-11.6689
▁sailors	-11.669
▁derived	-11.669
▁afterwards	-11.669
▁fathom	-11.6691
acious	-11.6691
▁counter	-11.6692
▁highest	-11.6693
▁sickly	-11.6695
▁added	-11.6696
lavish	-11.6696
▁fourth	-11.6697
▁levied	-11.6697
▁waiting	-11.6698
▁sheets	-11.6699
▁wooers	-11.67
▁listen	-11.67
eia	-11.67
▁reek	-11.67
▁bats	-11.6702
▁patiently	-11.6704
left	-11.6704
▁shouts	-11.6704
▁shameless	-11.6706
▁fairies	-11.6707
▁map	-11.6707
▁finish	-11.6709
▁dwelling	-11.6709
▁subdued	-11.6711
▁broils	-11.6713
makers	-11.6713
▁softly	-11.6714
▁dolour	-11.6716
▁briefly	-11.6717
▁beggary	-11.6719
▁maim	-11.672
▁busi	-11.6721
▁passes	-11.6722
▁Far	-11.6724
▁cony	-11.673
▁chapel	-11.6732
▁disposed	-11.6733
▁aches	-11.6735
▁tongueless	-11.6737
▁laboured	-11.6738
lots	-11.6738
▁piled	-11.6738
▁orderly	-11.6739
▁usage	-11.6739
▁Showing	-11.6739
▁beguiled	-11.674
▁bag	-11.6741
▁articles	-11.6741
▁arguments	-11.6741
▁mood	-11.6741
▁attorneys	-11.6741
▁leader	-11.6742
▁decrees	-11.6743
▁cheat	-11.6745
▁Less	-11.6747
▁incline	-11.6749
▁moans	-11.675
▁confined	-11.675
▁hills	-11.6752
▁wishes	-11.6752
▁complaining	-11.6753
▁AL	-11.6757
▁liars	-11.6759
▁stealing	-11.6763
▁drowning	-11.6764
▁stumbled	-11.6769
▁robber	-11.6769
▁purged	-11.6771
▁reconciled	-11.6771
▁presage	-11.6773
▁persuaded	-11.6773
▁bills	-11.6774
iff	-11.6775
▁consented	-11.678
▁Courage	-11.6785
erchance	-11.6785
▁fearless	-11.6786
▁entreated	-11.6788
uous	-11.6791
void	-11.6792
▁Withal	-11.6796
▁revers	-11.6801
▁poorest	-11.6802
▁carve	-11.6802
hful	-11.6803
▁begging	-11.6803
▁amity	-11.6803
▁throughly	-11.6803
▁fore	-11.6804
▁strangely	-11.6805
▁arrive	-11.6806
▁apothecary	-11.6806
▁husbands	-11.6806
▁justly	-11.6807
▁wrap	-11.6807
▁unkind	-11.6816
hill	-11.6816
▁Die	-11.6816
▁bestride	-11.6818
▁coats	-11.682
▁acting	-11.682
▁accompan	-11.6823
▁pines	-11.6824
▁reasonable	-11.6827
▁thorough	-11.6827
▁feasting	-11.6829
▁awaken	-11.683
Whoop	-11.6831
▁merc	-11.6832
▁novice	-11.6834
▁atone	-11.6834
▁Bore	-11.6835
▁nuts	-11.6837
▁rod	-11.6839
▁interr	-11.684
▁lamentations	-11.6848
▁eating	-11.685
ched	-11.6856
▁presumpt	-11.6856
▁mourner	-11.6858
▁Sleep	-11.6858
▁helms	-11.6861
▁censured	-11.6861
▁Charge	-11.6862
▁delivery	-11.6863
▁belongs	-11.6865
▁dedicate	-11.6866
▁wheels	-11.6866
▁hardy	-11.6867
ply	-11.687
aid	-11.6873
▁bonn	-11.6878
▁remembered	-11.6879
▁ague	-11.688
▁standard	-11.6883
bow	-11.6887
▁floods	-11.6889
ely	-11.689
▁denies	-11.6901
▁complaints	-11.6901
▁wondering	-11.6901
▁accusations	-11.6902
▁complexions	-11.6902
▁rates	-11.6902
▁Drop	-11.6906
▁pile	-11.6906
▁fiends	-11.6909
▁entering	-11.6911
▁pals	-11.6912
▁tellus	-11.6914
▁apple	-11.6916
▁gam	-11.692
▁nearer	-11.6921
▁bate	-11.6922
▁stray	-11.6923
apes	-11.6925
▁mid	-11.6932
▁expir	-11.6934
▁winding	-11.6936
▁praised	-11.6937
▁wis	-11.694
drench	-11.6944
▁charms	-11.6946
▁bug	-11.6947
eat	-11.695
▁jewels	-11.6954
▁pry	-11.6957
▁abuses	-11.6966
MILL	-11.6978
▁rightly	-11.6981
monger	-11.6987
▁continued	-11.6987
raw	-11.6988
▁Pro	-11.6991
renz	-11.7
▁stirr	-11.7
▁diseases	-11.7004
▁pursues	-11.7007
▁instructions	-11.7009
▁Mount	-11.7011
▁pie	-11.7016
▁blocks	-11.7017
▁petitions	-11.7018
▁fooling	-11.7022
▁footing	-11.7026
ouls	-11.7027
▁ban	-11.7027
▁hook	-11.7048
▁dive	-11.705
withal	-11.7052
▁devote	-11.7056
▁min	-11.7056
▁ballads	-11.7062
▁wearing	-11.7062
other	-11.7062
▁fashions	-11.7063
▁aff	-11.7069
Fore	-11.7072
▁attire	-11.7073
bate	-11.7075
ips	-11.7078
▁stake	-11.7081
▁Suff	-11.7086
▁kissing	-11.709
▁sues	-11.7094
▁purses	-11.7097
▁Thin	-11.7099
ains	-11.7099
▁twin	-11.7099
▁deserts	-11.71
▁sails	-11.7102
▁Meet	-11.7103
▁tides	-11.7103
▁digg	-11.7109
▁elders	-11.7114
▁tape	-11.7121
▁goodman	-11.7128
▁range	-11.7131
▁Pre	-11.7131
▁successful	-11.7135
iced	-11.7142
culate	-11.7142
▁web	-11.7143
▁seeking	-11.7144
rald	-11.7144
v	-11.7154
▁turning	-11.716
▁doubted	-11.7161
hic	-11.7163
▁rogues	-11.7168
▁fails	-11.7171
▁torments	-11.7173
▁swearing	-11.7173
▁aery	-11.7176
▁ram	-11.7177
suspected	-11.7181
▁male	-11.7184
roop	-11.7186
▁Si	-11.7188
▁Bret	-11.7189
▁audi	-11.7193
▁mow	-11.7195
utch	-11.72
▁wishing	-11.7201
leather	-11.721
▁wasted	-11.7218
▁circle	-11.7241
▁embraces	-11.7242
keeping	-11.7248
▁fees	-11.7249
▁hoard	-11.7249
▁arti	-11.7256
▁proofs	-11.7258
nel	-11.7266
eft	-11.7268
▁sweeten	-11.7269
▁innocents	-11.7271
fell	-11.7276
▁prevails	-11.7277
▁intends	-11.728
▁reel	-11.7291
▁shores	-11.7302
▁taunt	-11.7302
▁stall	-11.731
ostess	-11.7325
leave	-11.7331
▁butchers	-11.7342
▁humane	-11.7343
▁toys	-11.7348
▁warp	-11.7348
play	-11.7356
rought	-11.7362
▁wary	-11.7366
righteous	-11.7366
▁bre	-11.7371
▁crowned	-11.7384
▁goods	-11.7392
▁sear	-11.7397
elect	-11.7399
▁tunes	-11.7418
▁ut	-11.7427
▁Free	-11.743
▁smok	-11.7432
▁girls	-11.7432
▁Princes	-11.7437
▁Hard	-11.7445
set	-11.7451
mall	-11.7455
▁enjoys	-11.7486
▁bites	-11.7491
▁handsome	-11.7512
▁clip	-11.7518
▁injuri	-11.7531
▁effects	-11.7542
▁Bold	-11.7552
▁bide	-11.7554
cover	-11.7558
ssing	-11.7573
scent	-11.7577
▁vices	-11.7594
▁Bo	-11.7599
▁Hoo	-11.7611
usan	-11.7624
▁mess	-11.7625
fence	-11.7629
▁goest	-11.7637
▁shin	-11.7644
▁brand	-11.7647
pish	-11.7649
▁Whip	-11.765
▁heal	-11.765
ugh	-11.7651
sick	-11.7669
ridge	-11.7669
doubted	-11.7677
ler	-11.7698
▁longing	-11.7702
▁thrift	-11.7711
▁births	-11.7751
▁malicious	-11.7765
reful	-11.7767
▁Hour	-11.7771
▁drinks	-11.7775
hos	-11.7779
▁forms	-11.7784
thou	-11.7785
▁ambus	-11.78
▁shepherds	-11.7812
have	-11.7846
akes	-11.7857
lore	-11.7866
staring	-11.7872
▁shipp	-11.7877
▁Da	-11.7883
wonted	-11.792
▁doings	-11.7936
mine	-11.7961
▁Wi	-11.7962
aded	-11.7967
▁posts	-11.797
ugg	-11.7974
say	-11.7987
valued	-11.7988
smen	-11.7992
▁Doubl	-11.7995
▁stint	-11.8006
▁dooms	-11.8014
lous	-11.8038
hat	-11.8042
▁beholder	-11.8045
merit	-11.8075
SUR	-11.8077
▁calling	-11.8083
▁mingl	-11.8113
vely	-11.812
▁chin	-11.8121
▁buil	-11.8123
▁fle	-11.8127
tha	-11.8138
easy	-11.814
▁consuls	-11.8142
civi	-11.8143
landers	-11.8157
sel	-11.8159
ph	-11.8163
ain	-11.8179
▁worships	-11.8194
rown	-11.8204
▁bale	-11.8211
▁sancti	-11.8223
▁finding	-11.8228
ky	-11.8244
▁drie	-11.827
▁Vi	-11.8276
▁uns	-11.8291
▁ac	-11.8297
▁purit	-11.8302
rust	-11.8313
▁lecher	-11.8324
▁pal	-11.8334
▁ample	-11.8348
▁wagg	-11.8349
with	-11.8365
lay	-11.8378
▁si	-11.8396
▁enters	-11.8412
▁hoot	-11.8414
als	-11.8422
mperor	-11.8427
try	-11.8431
▁coin	-11.8443
▁issues	-11.8444
▁harms	-11.8452
▁joll	-11.8465
▁PO	-11.8475
▁Best	-11.8498
▁boil	-11.8515
▁titles	-11.8528
▁mill	-11.8546
▁pleasures	-11.8572
▁whipp	-11.8601
It	-11.8622
ence	-11.8625
urn	-11.8644
▁tumble	-11.8652
lic	-11.8661
hearte	-11.8678
ities	-11.8683
▁Bless	-11.8705
▁fed	-11.8724
ably	-11.8729
sk	-11.873
▁spru	-11.8756
▁courts	-11.8763
ren	-11.8768
▁tales	-11.8774
ile	-11.8779
▁nerv	-11.8789
pate	-11.8795
▁Pi	-11.8818
▁ox	-11.8826
ls	-11.884
ho	-11.8841
▁Qui	-11.8842
im	-11.8846
scarr	-11.8847
ell	-11.8849
▁unsta	-11.8855
▁shameful	-11.8857
▁Beg	-11.8861
▁surge	-11.8866
▁Wear	-11.8882
refer	-11.8884
▁Senators	-11.8905
low	-11.8916
gent	-11.893
isome	-11.8952
nker	-11.8955
▁doit	-11.8968
'--	-11.8983
▁hapl	-11.8994
▁parch	-11.9004
u	-11.9009
▁queens	-11.9012
though	-11.9018
▁returns	-11.9027
▁pith	-11.9027
rely	-11.9033
▁supposes	-11.9037
▁sweets	-11.9045
ort	-11.9046
▁soothe	-11.9048
ured	-11.9056
ni	-11.9064
▁cake	-11.9068
▁travell	-11.9072
dden	-11.9072
ard	-11.9076
▁roo	-11.9087
ries	-11.9115
▁im	-11.9143
ade	-11.9172
LLO	-11.9176
▁sty	-11.9176
▁nation	-11.9207
▁dart	-11.9211
arts	-11.9223
closed	-11.9227
ack	-11.9235
▁purposes	-11.9246
tion	-11.9279
▁warrants	-11.9282
▁Ca	-11.9285
▁bew	-11.9292
▁Jam	-11.9301
▁Glad	-11.9339
eak	-11.9339
▁Ge	-11.9351
▁Sh	-11.9357
▁comb	-11.9366
▁hers	-11.9372
▁St	-11.9412
▁Takes	-11.9416
▁nymph	-11.9428
ab	-11.9441
ulous	-11.9447
▁rapt	-11.945
▁Holla	-11.9471
ide	-11.9475
▁Car	-11.9483
▁Fate	-11.9502
▁Ex	-11.9533
▁pipe	-11.9541
▁interi	-11.9588
lo	-11.9614
range	-11.9618
tuned	-11.9622
▁pill	-11.9625
ature	-11.9638
arted	-11.9651
hine	-11.9677
lind	-11.9686
▁vest	-11.9691
sp	-11.972
▁oil	-11.9736
▁personal	-11.9737
ates	-11.9745
▁appea	-11.9762
bush	-11.9768
▁cope	-11.9769
▁unp	-11.9777
▁Tend	-11.9787
▁AE	-11.9824
how	-11.9833
▁breaths	-11.9864
lord	-11.9889
ad	-11.9891
▁Night	-11.9895
▁sho	-11.9896
▁preservati	-11.9901
▁enfranchise	-11.9904
ative	-11.9916
junction	-11.9916
▁Compa	-11.9996
ma	-12.0005
ears	-12.0008
▁threes	-12.0021
owards	-12.0022
ite	-12.0025
▁hoped	-12.0028
form	-12.0029
unning	-12.0033
voke	-12.0037
▁gi	-12.0048
▁plays	-12.0063
tched	-12.0073
▁suppl	-12.0079
ext	-12.008
wept	-12.0087
▁compel	-12.0096
▁che	-12.0117
▁ware	-12.0122
sy	-12.0125
▁ru	-12.0166
▁herd	-12.0177
itting	-12.0179
▁unc	-12.0189
lace	-12.019
rity	-12.0195
▁fitt	-12.0198
▁experience	-12.0208
▁Mist	-12.023
▁sly	-12.0237
ctors	-12.0241
ended	-12.0247
once	-12.0254
mitted	-12.0261
give	-12.0263
ney	-12.027
stal	-12.0302
▁reg	-12.031
Fine	-12.0327
▁Cons	-12.0337
lly	-12.0355
death	-12.0376
▁pursu	-12.0378
ast	-12.0386
▁unstai	-12.0397
orthy	-12.0411
▁domin	-12.0421
RRE	-12.0423
ore	-12.0438
serving	-12.0441
mond	-12.0446
pper	-12.0461
▁grin	-12.0465
part	-12.047
▁goad	-12.049
▁Plain	-12.0506
▁hug	-12.0519
nger	-12.0551
worn	-12.0553
uteous	-12.0573
spective	-12.0577
▁Fl	-12.058
word	-12.0597
▁troubles	-12.0599
ogether	-12.0609
nding	-12.0613
Come	-12.0614
▁Dukes	-12.0616
Thou	-12.0631
How	-12.0641
honour	-12.0651
▁crop	-12.0653
allow	-12.0656
otless	-12.0661
much	-12.0684
hard	-12.0684
elp	-12.0688
▁parl	-12.0692
bel	-12.0707
hen	-12.0713
aching	-12.072
▁ch	-12.0742
ves	-12.0753
▁hearth	-12.0754
tra	-12.0769
ontroll	-12.078
ices	-12.0782
go	-12.0785
tern	-12.0788
pray	-12.0788
▁Sa	-12.0792
cked	-12.0801
When	-12.0806
sweet	-12.0807
▁chi	-12.0829
while	-12.0837
ri	-12.0837
▁Fa	-12.0847
▁impre	-12.0851
▁Wa	-12.0853
▁bruis	-12.0855
ening	-12.0859
▁Scar	-12.0868
▁greed	-12.0869
aste	-12.0887
aring	-12.0893
cu	-12.0897
fall	-12.091
Romeo	-12.0918
alk	-12.0923
▁wade	-12.0929
▁Smal	-12.094
und	-12.0941
▁imput	-12.0946
braid	-12.0952
▁angle	-12.0968
tongue	-12.097
▁Blis	-12.0972
west	-12.0985
▁waxe	-12.099
Have	-12.1007
ash	-12.1014
▁charit	-12.1018
thwart	-12.1023
▁feign	-12.1034
why	-12.1058
aft	-12.1067
thought	-12.1069
ars	-12.1075
nged	-12.1079
igh	-12.1089
pile	-12.1096
▁owl	-12.1111
cold	-12.1121
proud	-12.1122
three	-12.1125
▁observ	-12.1126
No	-12.1127
content	-12.113
▁Sig	-12.1136
orrow	-12.1144
ram	-12.1145
ept	-12.1148
winge	-12.115
cho	-12.1155
▁spi	-12.1157
pp	-12.116
dopted	-12.1161
away	-12.1163
▁reside	-12.1171
married	-12.1183
ground	-12.1184
twenty	-12.1189
▁Blow	-12.1191
offer	-12.1197
corner	-12.1197
mark	-12.12
▁Infer	-12.1201
Charge	-12.1202
Thus	-12.1212
sorrow	-12.1213
▁convers	-12.1217
Coriolanus	-12.1221
bound	-12.1224
loving	-12.1224
erry	-12.1228
yard	-12.1228
Alas	-12.1233
black	-12.1234
arch	-12.1238
plight	-12.1241
swear	-12.1243
▁deceiv	-12.1245
ds	-12.1248
music	-12.1249
Stay	-12.1252
perform	-12.1258
Hold	-12.1267
parallel	-12.1269
creature	-12.127
worth	-12.1271
sses	-12.1273
cloth	-12.1274
▁Conceiv	-12.1276
▁Gro	-12.1279
sheet	-12.128
True	-12.1281
course	-12.1281
:'	-12.1282
Verily	-12.1286
Courage	-12.1287
ze	-12.1289
bishop	-12.1291
spoken	-12.1291
Thanks	-12.1292
widow	-12.1292
Remember	-12.1292
spring	-12.1292
simple	-12.1293
goose	-12.1296
fashion	-12.1299
witch	-12.13
changing	-12.1305
wood	-12.1305
silver	-12.1309
▁bonds	-12.1309
pitied	-12.1311
roses	-12.1317
vex	-12.1317
knock	-12.1317
fused	-12.1328
▁travel	-12.133
fond	-12.1333
▁clog	-12.1336
beat	-12.134
falling	-12.1346
crow	-12.1346
Yea	-12.1349
▁bestrid	-12.1356
▁Mi	-12.1358
▁captiv	-12.1362
harm	-12.1364
rightful	-12.1372
PE	-12.1374
kill	-12.1374
ung	-12.1381
iling	-12.1384
rising	-12.1412
meant	-12.1413
▁Las	-12.142
▁earn	-12.1424
▁Hap	-12.1425
▁seque	-12.1426
peer	-12.1428
fulness	-12.1431
▁wheresoe	-12.1435
▁ensu	-12.1436
▁overta	-12.1441
claim	-12.1443
ra	-12.1446
evel	-12.1446
adders	-12.1451
▁pun	-12.1454
▁Fre	-12.1457
educ	-12.146
crown	-12.1461
▁syllable	-12.1461
▁greyhound	-12.1461
▁cuckold	-12.1461
▁Neighbour	-12.1461
▁accent	-12.1465
▁sleeve	-12.1466
▁Seek	-12.147
▁dump	-12.147
▁Trans	-12.1472
▁gossip	-12.1474
▁va	-12.1475
▁charter	-12.1475
▁postern	-12.1479
▁defect	-12.1479
▁skull	-12.1479
▁tribe	-12.148
▁million	-12.1481
▁ornament	-12.1482
▁citizen	-12.1486
▁curb	-12.1487
▁affair	-12.1487
bit	-12.1489
▁Bel	-12.1494
ffliction	-12.1498
▁je	-12.1501
nointed	-12.1501
▁alarum	-12.1506
▁vein	-12.1508
sky	-12.1509
ccept	-12.1512
▁simpl	-12.1513
▁oppose	-12.1515
▁sailor	-12.1516
Bless	-12.1517
ask	-12.1519
ement	-12.1519
▁Gr	-12.1524
▁Resolve	-12.1525
▁dissolve	-12.1525
▁perfume	-12.1525
▁afterward	-12.1532
▁surprise	-12.1532
tiful	-12.1534
quis	-12.1534
scend	-12.1536
ag	-12.1538
▁combine	-12.1542
▁decl	-12.1542
▁crim	-12.1551
▁dispose	-12.1552
▁chafe	-12.1553
moan	-12.1555
ndam	-12.1556
▁boat	-12.1558
tter	-12.1558
▁depos	-12.1561
stick	-12.1562
▁continu	-12.1563
lies	-12.1564
▁insinuat	-12.1566
state	-12.1568
▁issu	-12.1568
▁negligen	-12.1568
ripe	-12.1568
hange	-12.1569
▁choos	-12.1569
▁Suppos	-12.1569
ication	-12.1569
▁bab	-12.1571
sati	-12.1575
havior	-12.1575
▁nimbl	-12.1577
▁factio	-12.1578
▁numb	-12.158
edient	-12.1582
▁inhabit	-12.1582
▁reckon	-12.1584
erthrow	-12.1584
▁restore	-12.1585
▁admire	-12.1585
▁religio	-12.1587
▁holida	-12.1589
curvy	-12.1591
▁forswor	-12.1593
enedic	-12.1593
▁blaz	-12.1594
▁extremit	-12.1594
uggest	-12.1595
▁indirect	-12.1595
welve	-12.1596
▁protect	-12.1596
eceive	-12.1597
▁fulfil	-12.1597
pinion	-12.1598
▁scept	-12.1599
▁exc	-12.16
▁volu	-12.16
▁drag	-12.1601
nquire	-12.1601
onvenient	-12.1604
▁suggest	-12.1605
▁spice	-12.1605
ronounce	-12.1605
▁disobedien	-12.1605
▁superflu	-12.1605
▁chastise	-12.1606
▁forewarn	-12.1606
▁renounce	-12.1606
▁replenish	-12.1606
▁reprehend	-12.1606
▁surviv	-12.1606
agabond	-12.1606
crivener	-12.1606
efinitive	-12.1606
lubbering	-12.1606
obstinate	-12.1606
ssociate	-12.1606
yrannical	-12.1606
▁Abraham	-12.1606
▁Account	-12.1606
▁Alexander	-12.1606
▁Argier	-12.1606
▁Autolycus	-12.1606
▁Barbary	-12.1606
▁Beggar	-12.1606
▁December	-12.1606
▁Deucalion	-12.1606
▁Divine	-12.1606
▁Erroneous	-12.1606
▁Ethiop	-12.1606
▁Ferdinand	-12.1606
▁Flavius	-12.1606
▁Gonzalo	-12.1606
▁Hacket	-12.1606
▁Hannibal	-12.1606
▁Libya	-12.1606
▁MEASURE	-12.1606
▁Mamillius	-12.1606
▁Miranda	-12.1606
▁Nicanor	-12.1606
▁Northampton	-12.1606
▁Potpan	-12.1606
▁Pursue	-12.1606
▁Usurp	-12.1606
▁Varrius	-12.1606
▁Vincetino	-12.1606
▁Welshman	-12.1606
▁Westmoreland	-12.1606
▁Wondrous	-12.1606
▁Worcester	-12.1606
▁abominable	-12.1606
▁abortive	-12.1606
▁abstinence	-12.1606
▁admonition	-12.1606
▁affianced	-12.1606
▁apology	-12.1606
▁arithmetic	-12.1606
▁arrogance	-12.1606
▁boatswain	-12.1606
▁brooch	-12.1606
▁brutish	-12.1606
▁cambric	-12.1606
▁carriage	-12.1606
▁caterpillars	-12.1606
▁churl	-12.1606
▁cipher	-12.1606
▁clerk	-12.1606
▁cockatrice	-12.1606
▁conflict	-12.1606
▁contagion	-12.1606
▁contemplat	-12.1606
▁continency	-12.1606
▁cormorant	-12.1606
▁corpse	-12.1606
▁cottage	-12.1606
▁covenant	-12.1606
▁coxcomb	-12.1606
▁crotchets	-12.1606
▁curfew	-12.1606
▁daffodils	-12.1606
▁deliberate	-12.1606
▁demesnes	-12.1606
▁descant	-12.1606
▁disfigure	-12.1606
▁distaff	-12.1606
▁doctrine	-12.1606
▁duellist	-12.1606
▁embassies	-12.1606
▁encamp	-12.1606
▁estimate	-12.1606
▁eternity	-12.1606
▁excellence	-12.1606
▁extempore	-12.1606
▁falchion	-12.1606
▁frequent	-12.1606
▁frivolous	-12.1606
▁funeral	-12.1606
▁gratulate	-12.1606
▁habiliments	-12.1606
▁handkerchief	-12.1606
▁hypocri	-12.1606
▁indictment	-12.1606
▁indignation	-12.1606
▁induction	-12.1606
▁inexorable	-12.1606
▁infidels	-12.1606
▁inhuman	-12.1606
▁insensible	-12.1606
▁insurrection	-12.1606
▁languish	-12.1606
▁lethargy	-12.1606
▁library	-12.1606
▁licence	-12.1606
▁malapert	-12.1606
▁massacre	-12.1606
▁merciless	-12.1606
▁millstones	-12.1606
▁misadventure	-12.1606
▁monastery	-12.1606
▁multiply	-12.1606
▁mutton	-12.1606
▁necessaries	-12.1606
▁obstacles	-12.1606
▁opportun	-12.1606
▁ostentation	-12.1606
▁packthread	-12.1606
▁pedigree	-12.1606
▁perdona	-12.1606
▁perfidious	-12.1606
▁petticoat	-12.1606
▁pheasant	-12.1606
▁phrase	-12.1606
▁precipitation	-12.1606
▁predecessors	-12.1606
▁predominant	-12.1606
▁principal	-12.1606
▁profanation	-12.1606
▁prolixi	-12.1606
▁prorogue	-12.1606
▁purblind	-12.1606
▁receiving	-12.1606
▁recreation	-12.1606
▁rejoicing	-12.1606
▁ruffian	-12.1606
▁runagate	-12.1606
▁secrecy	-12.1606
▁semblance	-12.1606
▁splinter	-12.1606
▁submit	-12.1606
▁supremacy	-12.1606
▁surcease	-12.1606
▁surplus	-12.1606
▁temporize	-12.1606
▁testimonie	-12.1606
▁tortoise	-12.1606
▁trivial	-12.1606
▁unconstant	-12.1606
▁unfortunate	-12.1606
▁ungrateful	-12.1606
▁unload	-12.1606
▁unprepared	-12.1606
▁unsettled	-12.1606
▁unspeakable	-12.1606
▁unwholesome	-12.1606
▁variable	-12.1606
▁venuto	-12.1606
▁wreaths	-12.1606
▁yesterday	-12.1606
▁partisans	-12.1606
continent	-12.1606
irectitude	-12.1606
▁Cytherea	-12.1606
▁Insult	-12.1606
▁Mopsa	-12.1606
▁Neglect	-12.1606
▁Profane	-12.1606
▁Reason	-12.1606
▁autumn	-12.1606
▁bucket	-12.1606
▁cockerel	-12.1606
▁dignifie	-12.1606
▁dispense	-12.1606
▁environ	-12.1606
▁gnarl	-12.1606
▁gyves	-12.1606
▁hammer	-12.1606
▁impossibilit	-12.1606
▁ingenious	-12.1606
▁matron	-12.1606
▁outstretch	-12.1606
▁perdition	-12.1606
▁politic	-12.1606
▁ravish	-12.1606
▁reflect	-12.1606
▁salutation	-12.1606
▁schoolboys	-12.1606
▁sedition	-12.1606
▁trident	-12.1606
▁vizard	-12.1606
logic	-12.1606
shrunk	-12.1606
▁Olymp	-12.1606
▁Proportion	-12.1606
▁Publi	-12.1606
▁carcass	-12.1606
▁effus	-12.1606
▁motive	-12.1606
▁shrub	-12.1606
▁superstitio	-12.1606
▁testify	-12.1606
▁Florenti	-12.1606
▁aediles	-12.1606
▁barbarism	-12.1606
▁haggard	-12.1606
▁impiety	-12.1606
▁potency	-12.1606
▁progress	-12.1606
▁servitor	-12.1606
▁strawberries	-12.1606
▁village	-12.1606
▁wilderness	-12.1606
▁client	-12.1606
▁contemn	-12.1606
▁eyebrows	-12.1606
▁Despite	-12.1606
▁Hungary	-12.1606
▁elbow	-12.1606
▁extirp	-12.1606
▁penetra	-12.1606
▁propagat	-12.1606
▁adversary	-12.1606
▁bisson	-12.1606
▁cardinal	-12.1606
▁Confound	-12.1606
▁carpet	-12.1606
▁groats	-12.1606
▁pennyworth	-12.1606
▁tavern	-12.1606
▁lawyers	-12.1606
ercharged	-12.1606
▁blench	-12.1606
▁grateful	-12.1606
▁navy	-12.1606
▁provision	-12.1606
quisite	-12.1606
▁Florence	-12.1606
▁credent	-12.1606
▁delicious	-12.1606
▁shrill	-12.1606
▁fleece	-12.1606
▁pruden	-12.1606
▁snarl	-12.1606
▁Prodigious	-12.1606
▁impartial	-12.1606
▁orisons	-12.1606
▁sprang	-12.1606
▁sufficiency	-12.1606
▁verified	-12.1606
▁drudge	-12.1606
▁topmast	-12.1606
▁inciden	-12.1606
▁quaff	-12.1606
▁embassage	-12.1606
▁forfend	-12.1606
▁pensive	-12.1606
▁Suspect	-12.1606
▁casque	-12.1606
erween	-12.1606
▁Cotus	-12.1606
▁Monday	-12.1606
▁Wrath	-12.1606
▁instinct	-12.1606
▁addition	-12.1606
▁centuri	-12.1606
▁distraught	-12.1606
▁Ladies	-12.1606
▁encouragement	-12.1606
▁desperation	-12.1606
▁remnant	-12.1606
▁project	-12.1607
▁reproach	-12.1607
▁publi	-12.1607
upturned	-12.1607
▁Prosperity	-12.1607
▁carters	-12.1607
▁distraction	-12.1607
▁glean	-12.1607
▁induced	-12.1607
▁misdoubt	-12.1607
▁Respect	-12.1607
▁Present	-12.1607
▁confiscat	-12.1607
▁cupbearer	-12.1607
▁geese	-12.1607
▁Forbidden	-12.1607
▁clime	-12.1607
parable	-12.1607
▁instigation	-12.1607
▁precept	-12.1607
▁violation	-12.1607
▁different	-12.1607
▁Pretty	-12.1607
▁stewardship	-12.1607
▁Roger	-12.1607
▁accompanied	-12.1607
ducement	-12.1607
▁entail	-12.1607
▁sustain	-12.1607
▁augment	-12.1607
▁penny	-12.1607
▁gnat	-12.1607
▁distance	-12.1607
▁woodcock	-12.1607
▁sauce	-12.1607
▁continuance	-12.1607
▁crupper	-12.1607
▁begnaw	-12.1607
▁confiden	-12.1607
▁universal	-12.1607
▁stories	-12.1607
▁Safe	-12.1607
▁bunch	-12.1607
Brutus	-12.1607
▁bubble	-12.1607
▁poetry	-12.1607
ntolerable	-12.1607
▁method	-12.1607
▁placket	-12.1607
▁clusters	-12.1607
▁industr	-12.1607
▁gravity	-12.1607
▁suppress	-12.1607
▁ribs	-12.1607
▁superfluity	-12.1607
▁clang	-12.1607
▁signified	-12.1607
▁disobedience	-12.1607
aucas	-12.1607
▁defiance	-12.1607
▁currish	-12.1607
▁retail	-12.1607
▁firmament	-12.1607
▁unthankfulness	-12.1607
▁hurry	-12.1607
▁passado	-12.1607
▁fancies	-12.1607
▁durance	-12.1607
▁wedlock	-12.1607
▁Resign	-12.1607
▁gallows	-12.1607
▁chaos	-12.1607
▁stumbling	-12.1607
▁Ensu	-12.1607
▁falter	-12.1607
▁gambol	-12.1607
▁repeat	-12.1607
▁understood	-12.1607
▁conjuration	-12.1607
▁grievance	-12.1607
▁valley	-12.1607
▁affable	-12.1607
▁protection	-12.1607
▁unsway	-12.1607
▁Split	-12.1607
Retire	-12.1608
▁invocat	-12.1608
▁Ourselves	-12.1608
▁patroness	-12.1608
▁twigs	-12.1608
▁unbruised	-12.1608
▁magn	-12.1608
▁tradesmen	-12.1608
▁disprove	-12.1608
▁statesman	-12.1608
▁wealthily	-12.1608
▁mista	-12.1608
▁fuel	-12.1608
▁pageant	-12.1608
▁carbon	-12.1608
▁punk	-12.1608
▁temporal	-12.1608
▁unskilful	-12.1608
▁benefactors	-12.1608
▁rayed	-12.1608
▁rift	-12.1608
▁muddy	-12.1608
▁transgression	-12.1608
▁banns	-12.1608
▁epit	-12.1608
▁Eleven	-12.1608
▁justified	-12.1608
▁prolong	-12.1608
▁chants	-12.1608
▁undertaking	-12.1608
▁unfurnish	-12.1608
▁vapour	-12.1608
probation	-12.1608
▁surmise	-12.1608
▁repute	-12.1608
▁lump	-12.1608
▁blossom	-12.1608
▁forego	-12.1608
▁treasury	-12.1608
▁clergymen	-12.1608
▁frailty	-12.1609
▁herdsmen	-12.1609
▁camp	-12.1609
▁Albion	-12.1609
ect	-12.1609
▁pillow	-12.1609
▁guiltiness	-12.1609
▁Water	-12.1609
elope	-12.1609
▁brush	-12.1609
▁Grim	-12.1609
▁misgive	-12.1609
▁insolent	-12.1609
▁pelting	-12.1609
olk	-12.1609
▁fount	-12.1609
▁denier	-12.1609
▁digress	-12.1609
▁arguing	-12.1609
▁collar	-12.1609
▁Exceed	-12.1609
▁privil	-12.1609
▁concealment	-12.1609
▁malady	-12.1609
▁impart	-12.1609
▁spawn	-12.1609
▁echo	-12.1609
▁misled	-12.1609
▁foremost	-12.1609
▁track	-12.1609
▁prophetess	-12.161
▁infectious	-12.161
▁untainted	-12.161
▁Gloucestershire	-12.161
▁riot	-12.161
▁irks	-12.161
▁Next	-12.161
▁minim	-12.161
▁drove	-12.161
▁spotless	-12.161
▁shearers	-12.161
▁gentlewomen	-12.161
▁ladder	-12.161
▁verily	-12.161
▁stockings	-12.161
▁Poison	-12.161
▁thimble	-12.161
▁penalty	-12.161
▁sincerity	-12.161
▁Prick	-12.161
▁pursuivant	-12.1611
▁admiral	-12.1611
▁coverture	-12.1611
▁declines	-12.1611
▁acceptance	-12.1611
▁Remain	-12.1611
▁unluck	-12.1611
▁raising	-12.1611
▁Affright	-12.1611
▁Words	-12.1611
▁Short	-12.1611
▁thrall	-12.1611
▁pathway	-12.1611
▁recomfort	-12.1611
▁Despised	-12.1611
▁temperately	-12.1611
▁gilded	-12.1611
balance	-12.1611
active	-12.1611
▁meteor	-12.1612
wittingly	-12.1612
▁fraught	-12.1612
▁Julietta	-12.1612
▁Travel	-12.1612
▁Plead	-12.1612
▁convented	-12.1612
▁Prospero	-12.1612
▁transform	-12.1612
▁brood	-12.1612
▁Certainly	-12.1612
▁information	-12.1612
▁collected	-12.1612
▁ounce	-12.1612
▁tabour	-12.1612
constrain	-12.1612
▁daunt	-12.1612
▁southward	-12.1612
▁bereave	-12.1612
▁fulfilled	-12.1612
▁tackling	-12.1613
▁skies	-12.1613
▁slippery	-12.1613
▁consulship	-12.1613
▁doubly	-12.1613
▁dallie	-12.1613
▁stifle	-12.1613
▁tragedy	-12.1613
▁impale	-12.1613
▁sympathy	-12.1613
▁battlements	-12.1613
▁delu	-12.1613
▁wagoner	-12.1613
▁brick	-12.1613
▁irre	-12.1613
▁winning	-12.1613
▁lightens	-12.1613
▁untaught	-12.1613
▁Redeemer	-12.1613
▁successive	-12.1613
▁assail	-12.1613
▁peep	-12.1613
▁Adrian	-12.1613
▁peerless	-12.1614
▁furious	-12.1614
▁posture	-12.1614
▁ivy	-12.1614
▁leash	-12.1614
▁misdeed	-12.1614
visible	-12.1614
▁panting	-12.1614
▁jaunt	-12.1614
parted	-12.1614
▁Rebell	-12.1614
▁gazing	-12.1615
ti	-12.1615
▁halber	-12.1615
▁Lucy	-12.1615
▁prig	-12.1615
▁fetter	-12.1615
▁moment	-12.1615
▁Age	-12.1615
▁Scratch	-12.1615
▁stoutness	-12.1615
dversity	-12.1615
▁Yorkshire	-12.1615
erpast	-12.1615
rived	-12.1615
▁logs	-12.1615
gger	-12.1616
▁unadvised	-12.1616
▁garment	-12.1616
▁scarf	-12.1617
▁certainty	-12.1617
▁drab	-12.1617
▁payment	-12.1617
▁Torment	-12.1617
▁Court	-12.1617
cupboard	-12.1617
deaf	-12.1617
▁commendable	-12.1617
▁indirectly	-12.1617
▁declined	-12.1617
▁twink	-12.1618
▁curds	-12.1618
▁foolery	-12.1618
▁tilth	-12.1618
▁misplace	-12.1618
▁lovelier	-12.1618
▁bestrew	-12.1618
▁pities	-12.1618
▁squire	-12.1619
▁featly	-12.1619
▁Commun	-12.1619
▁formally	-12.1619
▁factor	-12.1619
▁butcheries	-12.1619
▁carver	-12.1619
▁Boldly	-12.162
▁attendance	-12.162
▁fume	-12.162
cote	-12.162
▁smock	-12.162
▁rashness	-12.162
▁ungracious	-12.1621
pointed	-12.1621
▁shelves	-12.1621
▁largess	-12.1621
▁betroth	-12.1621
▁executing	-12.1621
▁thwarting	-12.1621
▁vehement	-12.1621
▁gale	-12.1621
▁emptie	-12.1621
▁mortality	-12.1622
▁Deceive	-12.1622
▁scurvy	-12.1622
▁furthe	-12.1622
▁Broke	-12.1622
▁compet	-12.1622
▁jay	-12.1622
▁suggested	-12.1622
▁deity	-12.1622
▁Laugh	-12.1622
▁limp	-12.1622
▁Grief	-12.1623
▁billet	-12.1623
▁arbitrate	-12.1623
▁customers	-12.1623
▁Report	-12.1623
▁guile	-12.1623
▁assistant	-12.1623
▁surety	-12.1623
▁Flatter	-12.1624
▁unshape	-12.1624
▁Self	-12.1624
▁Scorn	-12.1625
▁everlastingly	-12.1625
▁holiday	-12.1625
▁childhood	-12.1625
▁Pass	-12.1625
▁hangmen	-12.1625
▁House	-12.1625
▁religion	-12.1625
ops	-12.1625
▁misbe	-12.1625
▁snatch	-12.1625
▁unlikely	-12.1626
▁Matter	-12.1626
▁officious	-12.1626
▁barne	-12.1627
▁bolted	-12.1627
▁stair	-12.1627
▁Spake	-12.1627
▁sportful	-12.1627
▁dally	-12.1627
▁quarrelling	-12.1628
▁hilding	-12.1628
▁hoarse	-12.1628
pulse	-12.1629
▁palate	-12.1629
strate	-12.1629
▁moveable	-12.1629
▁Anointed	-12.1629
▁Dash	-12.163
▁Shut	-12.163
▁invest	-12.163
▁interrupted	-12.1631
inhabitable	-12.1631
▁Namely	-12.1631
▁robbery	-12.1631
▁Kiss	-12.1631
▁nobody	-12.1632
▁Consort	-12.1632
▁drain	-12.1632
▁quiver	-12.1632
▁unwillingly	-12.1632
▁smoke	-12.1632
▁heretic	-12.1632
▁lowest	-12.1633
▁Vile	-12.1633
onjectur	-12.1633
▁parley	-12.1634
▁ski	-12.1634
▁infallible	-12.1634
▁sphere	-12.1634
▁nicely	-12.1635
▁ambling	-12.1636
▁miscarried	-12.1636
ovato	-12.1636
▁quietness	-12.1636
▁twist	-12.1636
▁released	-12.1637
▁robbed	-12.1637
▁acre	-12.1638
▁hastily	-12.1639
▁Weigh	-12.1639
▁Cret	-12.1639
▁Dogs	-12.164
▁Iniquity	-12.1641
▁fitness	-12.1642
▁Revolt	-12.1642
▁ev	-12.1642
▁baited	-12.1642
▁defaced	-12.1643
▁audience	-12.1643
▁ingratitude	-12.1644
▁viand	-12.1645
urther	-12.1645
▁Courageous	-12.1645
▁swan	-12.1646
▁carelessly	-12.1646
▁bon	-12.1646
▁amount	-12.1647
▁rud	-12.1647
polit	-12.1648
▁station	-12.1648
▁felon	-12.1649
▁blushes	-12.1649
▁lucky	-12.165
▁thankings	-12.1651
▁Softly	-12.1651
▁wive	-12.1651
▁qualif	-12.1651
▁mansion	-12.1651
▁Wood	-12.1652
▁asunder	-12.1652
▁lass	-12.1652
▁harmful	-12.1652
▁arrested	-12.1653
▁compounded	-12.1653
▁forsaken	-12.1653
▁robe	-12.1653
▁pretend	-12.1653
clasp	-12.1654
▁stab	-12.1654
▁Dull	-12.1654
▁quart	-12.1654
▁lure	-12.1655
▁stables	-12.1655
▁Nea	-12.1655
certainties	-12.1656
▁pratest	-12.1657
▁formal	-12.1657
▁limed	-12.1657
▁quest	-12.1657
phin	-12.1657
▁streaks	-12.1658
▁resembles	-12.1659
▁Dig	-12.1659
▁Unbuckl	-12.1659
▁complots	-12.166
▁opposers	-12.166
▁clubs	-12.166
▁hound	-12.166
▁monarchy	-12.166
▁staggers	-12.166
▁promotions	-12.166
▁cannibals	-12.1661
▁kernels	-12.1661
▁exhales	-12.1661
▁bitterest	-12.1661
▁attendants	-12.1661
▁depending	-12.1661
▁famously	-12.1661
▁oratory	-12.1661
▁carefully	-12.1662
▁losing	-12.1662
▁successes	-12.1663
ounsel	-12.1663
▁abroach	-12.1664
▁neglected	-12.1664
▁emme	-12.1664
▁conquered	-12.1664
▁palmers	-12.1664
dy	-12.1665
▁furnished	-12.1665
▁accusers	-12.1665
▁devou	-12.1665
herds	-12.1665
hequer	-12.1667
▁dirt	-12.1668
▁coil	-12.1668
ummon	-12.1669
rief	-12.167
▁rigor	-12.167
▁excels	-12.167
alian	-12.167
ipple	-12.1671
examine	-12.1671
▁cal	-12.1672
▁directed	-12.1672
▁Pe	-12.1672
hallow	-12.1673
▁savours	-12.1673
▁awaking	-12.1673
▁discern	-12.1673
▁players	-12.1674
▁assisted	-12.1674
▁Rain	-12.1674
▁lime	-12.1675
server	-12.1675
▁Barn	-12.1675
▁argued	-12.1681
▁recorded	-12.1681
▁minion	-12.1681
▁equally	-12.1682
▁mettle	-12.1684
▁startle	-12.1684
▁Seven	-12.1686
▁perfumed	-12.1688
▁dissolved	-12.1688
▁Resolved	-12.1689
▁lull	-12.1689
▁tithe	-12.1689
▁employment	-12.169
▁Raise	-12.1691
▁ewer	-12.1691
▁kindle	-12.1692
▁swept	-12.1692
▁manors	-12.1692
▁dieted	-12.1692
▁stinging	-12.1693
▁pout	-12.1693
▁combined	-12.1693
uities	-12.1694
▁descried	-12.1695
▁appease	-12.1695
judge	-12.1696
▁husbandry	-12.1696
▁horseman	-12.1697
rofess	-12.1697
▁bestir	-12.17
hereabouts	-12.17
times	-12.1701
screen	-12.1702
▁belonging	-12.1702
▁cable	-12.1703
applied	-12.1703
ners	-12.1704
▁vouches	-12.1704
une	-12.1704
bearer	-12.1704
▁grossly	-12.1705
▁admired	-12.1706
▁expected	-12.1706
▁inches	-12.1706
▁conducted	-12.1707
▁sip	-12.1707
▁galled	-12.1708
▁formerly	-12.1711
erbear	-12.1712
▁antiqu	-12.1712
HE	-12.1712
▁crosses	-12.1713
▁punished	-12.1714
logue	-12.1715
▁List	-12.1715
ba	-12.1716
▁contracted	-12.1717
▁Maid	-12.1717
▁hoping	-12.1718
▁Pity	-12.1721
aughter	-12.1723
amour	-12.1724
▁dainties	-12.1725
▁mounted	-12.1725
▁Earth	-12.1725
▁Valentin	-12.1725
▁err	-12.1727
▁ache	-12.1727
▁super	-12.1727
▁lamented	-12.1728
▁gird	-12.1728
▁instructed	-12.1729
▁darts	-12.1732
▁agreeing	-12.1733
▁substantial	-12.1733
▁rite	-12.1734
▁flo	-12.1734
ehind	-12.1734
▁stealth	-12.1734
▁Traitor	-12.1735
▁defects	-12.1735
▁harp	-12.1735
▁tribes	-12.1736
▁arraign	-12.1736
▁Plu	-12.1737
▁gentleness	-12.1739
▁enclose	-12.1739
▁milder	-12.1739
iments	-12.1741
▁revived	-12.1741
ewes	-12.1741
▁willingness	-12.1742
▁roared	-12.1744
▁vitae	-12.1745
▁Subject	-12.1746
▁rhyme	-12.1747
▁pricking	-12.1747
▁buzz	-12.1747
▁dreaded	-12.1747
▁galli	-12.1748
▁verdict	-12.1748
▁decreed	-12.1748
▁Simois	-12.1749
▁dumps	-12.1749
▁Sicinius	-12.1749
▁perch	-12.1749
▁cricket	-12.1749
▁sleeves	-12.1749
▁Priami	-12.175
▁Hides	-12.175
▁deserving	-12.175
vied	-12.175
▁accents	-12.1751
▁shiver	-12.1753
▁empir	-12.1753
▁lackey	-12.1753
▁Neighbours	-12.1754
▁cuckolds	-12.1754
▁syllables	-12.1754
▁greyhounds	-12.1754
tainted	-12.1754
▁borough	-12.1755
▁entitl	-12.1756
▁affecting	-12.1758
shaft	-12.1759
▁uttered	-12.1759
▁clout	-12.1762
▁auspicious	-12.1762
▁tenor	-12.1763
▁Rise	-12.1763
▁leisurely	-12.1763
▁creditor	-12.1764
▁convenient	-12.1765
nard	-12.1766
▁rung	-12.1768
hide	-12.177
eliver	-12.177
ames	-12.1772
▁departed	-12.1773
▁vaunt	-12.1774
utter	-12.1776
▁beheaded	-12.1776
▁spot	-12.1776
▁handled	-12.1776
▁Sure	-12.1778
▁brands	-12.1779
▁hoop	-12.178
▁accounted	-12.1781
▁contrarie	-12.1781
▁fishes	-12.1784
▁clapp	-12.1784
▁forges	-12.1784
▁New	-12.1785
▁standers	-12.1785
latter	-12.1786
▁fitly	-12.1786
▁winner	-12.1786
▁negligent	-12.1787
▁paw	-12.1787
▁brag	-12.1787
weigh	-12.179
▁sacrificed	-12.1791
▁stag	-12.1793
▁wooer	-12.1794
▁divorced	-12.1796
maids	-12.1796
▁fixe	-12.1798
▁alarums	-12.1799
▁Scal	-12.1802
▁dough	-12.1802
▁prop	-12.1803
▁deflower	-12.1804
▁mended	-12.1805
▁concerning	-12.1805
▁cape	-12.1806
▁bended	-12.1806
▁Tri	-12.1807
▁declin	-12.1809
▁eggs	-12.1809
▁science	-12.1809
▁abound	-12.1817
▁debate	-12.1818
▁packing	-12.1818
ants	-12.1819
▁Wish	-12.1819
ctor	-12.1823
▁spright	-12.1827
▁howling	-12.1827
▁rubs	-12.1829
▁forged	-12.1829
▁dangerously	-12.183
▁Done	-12.1831
▁parks	-12.1831
▁esp	-12.1833
▁allowing	-12.1833
▁sessions	-12.184
▁poet	-12.1842
▁avail	-12.1842
▁fingering	-12.1842
▁losses	-12.1842
▁fertil	-12.1843
▁embo	-12.1844
▁virginal	-12.1844
▁performed	-12.1844
▁cog	-12.1845
▁vo	-12.1847
▁Fellows	-12.1848
▁champions	-12.1849
▁confederates	-12.1849
▁magistrates	-12.1849
▁maidenheads	-12.1849
▁rice	-12.1851
▁rubbi	-12.1852
▁soothing	-12.1852
▁buds	-12.1853
▁finest	-12.186
swerve	-12.1862
▁allied	-12.1863
▁bravely	-12.1863
▁singing	-12.1864
▁afresh	-12.1868
▁reins	-12.1868
▁sinner	-12.1874
▁departing	-12.1875
▁laughing	-12.1879
les	-12.188
▁flattery	-12.1881
▁mix	-12.1882
▁inquired	-12.1882
▁acted	-12.1883
▁thrill	-12.1887
▁honestly	-12.1888
erform	-12.1889
▁dun	-12.1893
▁stud	-12.1894
▁bower	-12.1895
broach	-12.1895
reathe	-12.1897
▁unclean	-12.1898
patent	-12.1899
▁sainted	-12.19
▁weighing	-12.1903
▁taper	-12.1903
ical	-12.1904
▁nettles	-12.1908
▁teaching	-12.1909
tigate	-12.191
▁openly	-12.1911
▁depends	-12.1912
eize	-12.1915
▁flaw	-12.1916
▁skins	-12.1916
▁verie	-12.1918
▁holes	-12.1919
▁assay	-12.1923
▁Eng	-12.1923
▁despairing	-12.1925
▁Ra	-12.1928
flow	-12.193
▁seduce	-12.1931
▁tokens	-12.1934
▁jades	-12.1943
▁heralds	-12.1944
▁pictures	-12.1945
▁shrieks	-12.1945
▁functions	-12.1945
angled	-12.1946
▁selves	-12.1949
▁dissembler	-12.1952
▁gapes	-12.1952
▁whores	-12.1953
▁tails	-12.1953
▁ordered	-12.1953
wall	-12.1954
erman	-12.1954
▁parallel	-12.1955
ved	-12.1957
▁haunts	-12.1961
▁cloth	-12.1963
▁visitor	-12.1964
▁razed	-12.1966
▁admits	-12.1966
▁Sail	-12.1967
▁chan	-12.1974
▁batt	-12.1975
off	-12.1976
▁curt	-12.1976
absolve	-12.1977
flex	-12.1977
▁ro	-12.1978
▁blacker	-12.1985
▁dawn	-12.1988
thwa	-12.1989
▁perver	-12.1995
▁glue	-12.1995
hearts	-12.2004
eve	-12.2006
▁plight	-12.2007
▁Conceive	-12.2007
▁converse	-12.2012
▁tenth	-12.2013
spect	-12.2013
▁touches	-12.2019
▁brats	-12.2019
▁bolder	-12.2019
▁paying	-12.202
▁Forward	-12.2021
bot	-12.2022
▁mur	-12.2022
▁expose	-12.2023
ove	-12.2023
▁gib	-12.203
▁masks	-12.2032
▁Inferr	-12.2033
▁Cheer	-12.2035
▁surfeits	-12.2035
whelp	-12.2035
▁chopp	-12.2037
case	-12.2037
▁strifes	-12.2039
serpi	-12.2039
▁victors	-12.204
▁tutors	-12.2041
▁spray	-12.2041
▁conquerors	-12.2042
▁Peer	-12.2043
▁orators	-12.2048
▁victori	-12.205
▁thigh	-12.2051
amorous	-12.2052
reak	-12.2055
▁adders	-12.2056
rows	-12.2058
▁seeds	-12.2058
plant	-12.2058
▁earls	-12.2061
shell	-12.2065
xamine	-12.2066
▁Four	-12.2067
certain	-12.2072
orn	-12.2078
▁methoughts	-12.2078
▁fawns	-12.2083
▁bits	-12.2084
▁orb	-12.2084
▁pret	-12.2088
▁knots	-12.2089
▁barbe	-12.2093
alms	-12.2098
ntipodes	-12.2103
▁meek	-12.2107
▁Need	-12.211
usty	-12.2116
rakes	-12.2124
▁bleat	-12.2125
▁pies	-12.213
▁sheath	-12.2131
mis	-12.2132
▁expedien	-12.2139
▁cheques	-12.2139
▁stomachs	-12.2139
▁substitutes	-12.2139
▁Aim	-12.214
anting	-12.2142
▁dung	-12.2153
▁petitioner	-12.2163
own	-12.2176
▁stored	-12.2176
▁breach	-12.218
▁possesse	-12.2182
▁quarters	-12.2186
bs	-12.2189
cks	-12.219
▁dates	-12.2195
▁accidental	-12.2195
▁doting	-12.2201
▁unite	-12.2203
▁smells	-12.221
▁follower	-12.2215
nque	-12.2219
feigned	-12.2222
butt	-12.2228
▁Ven	-12.223
▁shields	-12.2234
▁characters	-12.2236
▁possessions	-12.2238
▁watching	-12.2238
tling	-12.224
▁pip	-12.2242
ldst	-12.2242
clamations	-12.2244
▁unre	-12.2246
▁brawls	-12.2251
▁pang	-12.2252
▁fiddle	-12.2255
▁career	-12.2258
▁Deserved	-12.2258
coming	-12.2259
▁grains	-12.2263
▁pins	-12.2267
fficer	-12.2268
Lo	-12.2271
▁maw	-12.2274
▁ball	-12.2278
▁sheet	-12.2279
▁Con	-12.228
tic	-12.2281
▁harden	-12.2283
▁feeder	-12.2285
▁exiled	-12.2285
SC	-12.2287
▁bled	-12.2287
▁builds	-12.2288
ismiss	-12.229
▁scrape	-12.2291
llowed	-12.2291
brie	-12.2292
nerable	-12.2292
▁Land	-12.2294
rp	-12.2295
raybeard	-12.2297
elting	-12.2299
▁card	-12.2302
▁bull	-12.2303
▁followed	-12.2309
rget	-12.2309
forced	-12.231
▁rags	-12.2313
musical	-12.2318
▁pence	-12.2326
▁Tickle	-12.2331
▁discourses	-12.2332
▁eagles	-12.2332
▁devised	-12.2343
▁cleans	-12.2343
▁Sea	-12.2355
▁Pierce	-12.2355
▁celebrate	-12.2368
leaf	-12.2368
▁distribute	-12.237
▁peach	-12.2371
▁Refuse	-12.2374
▁injur	-12.2378
ickle	-12.2381
▁aug	-12.2383
▁Consu	-12.2386
▁bells	-12.2389
▁dre	-12.2389
▁Sc	-12.2392
njoy	-12.24
udge	-12.2402
legg	-12.2403
▁unreasonabl	-12.2405
RDINA	-12.2407
▁awaked	-12.2412
eaves	-12.2413
mber	-12.2421
▁pleader	-12.2421
▁ALL	-12.2424
▁Depose	-12.2428
▁forfeits	-12.2429
▁Jacks	-12.243
▁Oppose	-12.2438
avin	-12.2441
ripp	-12.2458
wieldy	-12.2466
▁images	-12.2471
▁roe	-12.2475
ug	-12.2479
▁abides	-12.2481
▁sect	-12.2486
match	-12.2491
▁cull	-12.2496
▁agent	-12.2497
▁specially	-12.2499
olum	-12.25
topping	-12.2501
▁answered	-12.2501
▁doers	-12.2505
▁affects	-12.2506
pose	-12.2509
▁conn	-12.2512
▁excused	-12.2515
▁stamps	-12.2516
▁AEdiles	-12.2527
▁sew	-12.2528
▁closet	-12.2529
▁sounding	-12.2539
▁Cu	-12.2545
erald	-12.2556
▁Mor	-12.2565
▁Unhapp	-12.2575
▁ben	-12.2578
avel	-12.2579
▁bell	-12.2586
ower	-12.2589
An	-12.259
eny	-12.2591
▁trades	-12.2593
▁comforter	-12.2594
▁Strang	-12.2601
▁Whate	-12.2602
▁beck	-12.2613
▁cured	-12.2619
ff	-12.262
▁canon	-12.262
post	-12.2623
▁subsi	-12.2626
▁Wo	-12.2626
▁passages	-12.2627
▁dole	-12.2634
ribb	-12.2635
▁dews	-12.264
▁Per	-12.2644
nch	-12.2647
eph	-12.2648
▁murderers	-12.2648
▁knights	-12.265
▁Cat	-12.2652
urch	-12.2653
utually	-12.2659
haplain	-12.2659
ta	-12.2664
▁stings	-12.2664
▁Blood	-12.2677
▁assemble	-12.2681
bodie	-12.2688
outrun	-12.2693
▁writes	-12.2694
ord	-12.2703
▁Des	-12.2712
▁bars	-12.2717
ssed	-12.2717
▁eased	-12.2724
▁dispositions	-12.2725
ump	-12.2727
▁waver	-12.273
▁plots	-12.2735
rying	-12.2743
ndured	-12.2746
▁cracks	-12.2748
lasting	-12.275
abour	-12.2761
▁Guilt	-12.2764
rain	-12.2766
mask	-12.277
rowns	-12.277
oppers	-12.2773
cement	-12.2776
▁lustie	-12.2781
kets	-12.2781
▁treads	-12.2789
▁Del	-12.2791
gans	-12.2792
beseem	-12.2799
▁lave	-12.2807
▁unf	-12.2816
ood	-12.2817
abble	-12.282
na	-12.2826
zzled	-12.283
ites	-12.2862
ednes	-12.2867
rns	-12.2872
▁lease	-12.2881
pread	-12.2882
▁ext	-12.2912
ssel	-12.2916
▁beards	-12.2916
▁fined	-12.293
▁ju	-12.2932
leopa	-12.2932
gawd	-12.2968
▁corns	-12.297
▁hew	-12.2971
ny	-12.2976
cell	-12.3001
▁proceeds	-12.3004
east	-12.3005
▁band	-12.3007
tua	-12.3018
▁ble	-12.3019
▁steer	-12.302
▁countenances	-12.3021
cred	-12.3022
oming	-12.303
▁Drum	-12.3032
OVE	-12.3035
uring	-12.3043
▁Seduc	-12.3046
▁consist	-12.3056
oa	-12.3093
▁dra	-12.3094
enders	-12.3096
▁Flow	-12.3111
▁Royal	-12.3111
▁plagues	-12.3117
erous	-12.3117
ining	-12.3117
▁brid	-12.3122
mi	-12.3124
▁thereon	-12.3129
rious	-12.3148
▁Heart	-12.3153
▁purgat	-12.316
▁prayed	-12.3163
alty	-12.3172
▁cit	-12.3186
▁fork	-12.3191
stitution	-12.3192
▁carouse	-12.3199
▁guards	-12.3201
▁singularit	-12.3214
▁cowards	-12.3215
rugs	-12.3215
▁usurper	-12.3216
▁humours	-12.3218
ged	-12.3218
▁brav	-12.3224
tice	-12.3224
▁excuses	-12.323
▁showing	-12.3242
louring	-12.3253
ire	-12.3254
▁mocker	-12.3255
dness	-12.3257
cata	-12.3263
ak	-12.3269
▁reverse	-12.3269
▁Humbl	-12.327
▁unfe	-12.3271
▁Ru	-12.3283
properly	-12.3286
▁Wise	-12.3306
▁K	-12.3307
▁notable	-12.3309
▁beam	-12.3312
emptation	-12.3315
▁camel	-12.3321
uries	-12.333
pare	-12.3342
tabb	-12.3367
lower	-12.3399
▁wisdoms	-12.341
▁BR	-12.3413
▁defender	-12.3417
ise	-12.342
▁quarrels	-12.3436
▁spurr	-12.3443
▁hairs	-12.3451
▁matt	-12.3457
loved	-12.3466
▁Adopt	-12.3477
▁liver	-12.3486
▁worthi	-12.349
▁soever	-12.3506
roth	-12.3532
▁sco	-12.3542
▁wills	-12.3547
▁spill	-12.3548
▁Rid	-12.3558
▁chatte	-12.3575
▁gains	-12.3577
la	-12.3581
▁seconds	-12.3588
ale	-12.3589
▁hereof	-12.3596
▁encounters	-12.3612
dash	-12.3623
▁stains	-12.3638
▁seats	-12.3644
nfranchisement	-12.3647
oo	-12.3649
knit	-12.3653
▁crafts	-12.3655
tired	-12.3659
ype	-12.367
tended	-12.3675
tes	-12.369
▁gobl	-12.37
struction	-12.3707
▁beda	-12.3724
▁prog	-12.3748
▁dul	-12.3775
▁reve	-12.3782
▁sha	-12.3783
▁forbids	-12.3787
cannon	-12.3789
reasonable	-12.3794
lmost	-12.3812
eck	-12.382
earn	-12.3825
amed	-12.3836
ury	-12.3849
▁scornful	-12.385
▁courser	-12.3852
▁bathe	-12.3854
▁unmann	-12.3857
ond	-12.3858
▁hind	-12.3871
rusty	-12.3883
▁usurps	-12.3892
razed	-12.3898
lish	-12.3914
owls	-12.3923
▁visits	-12.3926
▁praying	-12.3926
ying	-12.3939
▁Err	-12.396
▁cage	-12.3983
tchers	-12.3998
▁ref	-12.4006
oes	-12.4007
isit	-12.4014
▁metre	-12.4018
reach	-12.4051
olvish	-12.4054
band	-12.407
▁kingdoms	-12.4105
▁mortals	-12.4106
njuri	-12.4141
▁mamm	-12.416
▁strikes	-12.417
▁hears	-12.417
coloured	-12.4183
▁patri	-12.4194
▁slu	-12.4196
deck	-12.4204
▁Fast	-12.421
wearie	-12.4218
kers	-12.4235
tro	-12.4236
HER	-12.4236
mony	-12.424
cides	-12.4249
▁weari	-12.4253
mity	-12.4259
▁mate	-12.4279
▁glor	-12.4281
pute	-12.4286
icul	-12.4304
▁Move	-12.4311
MON	-12.4322
oils	-12.4323
ution	-12.4327
ded	-12.4332
▁purposed	-12.4335
▁Pla	-12.4336
▁sweeting	-12.4347
▁porri	-12.4358
nymphs	-12.4372
chan	-12.4384
catching	-12.4388
▁professe	-12.4407
▁thwa	-12.4412
▁Praise	-12.4413
rance	-12.4435
ux	-12.4439
moderately	-12.4443
▁dau	-12.4446
reservation	-12.4475
▁Sho	-12.4482
ics	-12.449
days	-12.4497
▁itch	-12.4497
▁consents	-12.4538
pipes	-12.4554
ks	-12.456
▁hides	-12.4562
airy	-12.4566
▁Forbid	-12.4574
ffron	-12.4607
▁tro	-12.4619
▁feels	-12.4624
▁Comp	-12.4626
itable	-12.463
▁unt	-12.4691
▁grants	-12.4704
ntended	-12.4706
▁entreats	-12.4756
coff	-12.4758
▁imm	-12.4762
gre	-12.4779
▁games	-12.4798
▁striv	-12.4799
▁ri	-12.4801
ims	-12.4828
▁dependen	-12.4853
rage	-12.4863
CI	-12.4863
ntangled	-12.4872
pern	-12.4872
▁mul	-12.4876
▁concu	-12.4878
▁Accord	-12.4899
FOR	-12.4922
▁Devo	-12.4924
diness	-12.4938
ragon	-12.4946
▁board	-12.4962
▁ston	-12.4974
iers	-12.4977
ean	-12.5016
altering	-12.5016
og	-12.5032
nche	-12.5039
eformed	-12.5064
▁moth	-12.5066
roused	-12.5071
tress	-12.5071
duce	-12.5072
nable	-12.5074
▁cla	-12.5077
▁desolat	-12.5081
dea	-12.5088
urious	-12.5095
cro	-12.5097
▁ah	-12.5127
▁vic	-12.5134
treading	-12.5157
▁Suppl	-12.5164
▁dr	-12.5168
tard	-12.5169
▁Ch	-12.5171
Twi	-12.5214
stly	-12.523
▁determinat	-12.5243
▁fasts	-12.5269
▁scal	-12.5286
▁hog	-12.5291
mputation	-12.5307
WA	-12.532
rents	-12.5335
▁k	-12.5341
▁Cap	-12.5368
ertain	-12.5375
▁fields	-12.5386
▁untru	-12.5388
seed	-12.5416
ample	-12.542
▁spir	-12.5429
▁tun	-12.543
▁y	-12.5449
▁ap	-12.5472
Wind	-12.5484
▁sw	-12.5495
thy	-12.5505
▁hen	-12.5511
▁touche	-12.5512
▁honourabl	-12.5516
▁Tho	-12.5525
▁Tear	-12.5532
eing	-12.5542
▁fun	-12.5546
▁Fo	-12.5548
▁Heir	-12.5565
▁coy	-12.5577
hrew	-12.5587
erves	-12.5593
▁fist	-12.5597
ip	-12.5615
city	-12.5616
las	-12.5627
done	-12.5661
treat	-12.5692
iled	-12.5695
come	-12.5725
rts	-12.5736
▁Allow	-12.5745
urgeon	-12.5748
mo	-12.5748
tumbled	-12.5749
▁Ly	-12.5756
▁Fi	-12.5759
nations	-12.5769
▁pant	-12.5769
hests	-12.5774
table	-12.5777
strings	-12.5814
▁tha	-12.5817
▁Sta	-12.5836
claps	-12.5848
▁Wer	-12.5855
mma	-12.586
call	-12.5911
spired	-12.5969
doubled	-12.5971
arn	-12.5991
urge	-12.5995
angle	-12.6012
ropp	-12.6013
▁wai	-12.6028
stall	-12.6058
▁fif	-12.6081
▁Rem	-12.6084
▁gett	-12.6095
ences	-12.6096
▁shill	-12.6122
▁abject	-12.6145
eject	-12.6158
▁nod	-12.6186
propertie	-12.6186
imps	-12.62
ga	-12.6205
ithout	-12.6206
woman	-12.6216
▁justices	-12.623
▁te	-12.6237
udding	-12.6254
▁cy	-12.6269
▁fri	-12.6289
▁moi	-12.6314
vassals	-12.6328
mur	-12.6332
▁thicke	-12.6339
rey	-12.6341
▁cor	-12.6345
raught	-12.6361
▁wet	-12.6386
EPH	-12.6389
▁tough	-12.6391
▁Infuse	-12.6394
▁diet	-12.6399
uls	-12.641
▁emper	-12.6418
longe	-12.6423
▁moat	-12.6428
mp	-12.6459
solation	-12.646
tty	-12.6461
▁Com	-12.6483
▁sob	-12.6485
anks	-12.65
▁flourishe	-12.6503
lves	-12.6507
violable	-12.6508
erity	-12.6518
allows	-12.6521
▁girt	-12.6526
▁strang	-12.6527
shaken	-12.6536
ANC	-12.6539
mb	-12.6555
▁eld	-12.6558
ursed	-12.6567
hence	-12.6579
uns	-12.6593
ephe	-12.6601
tch	-12.6608
ORS	-12.6611
▁ob	-12.6625
mmoderate	-12.6632
ap	-12.666
ering	-12.6663
him	-12.6665
tony	-12.6668
itted	-12.6674
ign	-12.6686
▁Tal	-12.6686
stard	-12.6691
▁bene	-12.6699
▁Happi	-12.6706
▁compe	-12.6717
▁genero	-12.6748
That	-12.677
wise	-12.6772
▁su	-12.6777
ills	-12.6829
▁heave	-12.6836
ac	-12.688
▁ampl	-12.688
▁jol	-12.6882
llow	-12.6884
cado	-12.6933
manner	-12.6935
▁sta	-12.6936
sop	-12.694
▁mea	-12.6949
▁aspire	-12.6954
ann	-12.6963
orerun	-12.6972
▁seeme	-12.6985
▁teaches	-12.7022
▁stup	-12.7031
▁Few	-12.7041
▁lout	-12.7067
ado	-12.7073
▁Bra	-12.7079
▁poise	-12.7091
▁frankl	-12.7093
morous	-12.7102
efied	-12.7104
▁guid	-12.7113
orthwith	-12.7115
oison	-12.7174
lvish	-12.7174
▁PER	-12.7176
lant	-12.7178
aked	-12.7179
rings	-12.7182
▁Doub	-12.7234
▁Cur	-12.7243
chers	-12.7244
grave	-12.7265
amber	-12.7272
ency	-12.7285
▁marche	-12.7291
ddle	-12.7293
risen	-12.7296
▁Cape	-12.7336
▁wag	-12.7343
▁Dea	-12.7348
ges	-12.7353
equeath	-12.7361
But	-12.7362
▁unkn	-12.7363
▁Pa	-12.7381
war	-12.7396
ckle	-12.7433
oxes	-12.7442
raged	-12.7445
building	-12.7454
ttle	-12.7456
may	-12.7469
ber	-12.7474
▁Rhe	-12.7478
ield	-12.7486
lips	-12.7487
▁spo	-12.7508
azing	-12.7522
iry	-12.7547
▁rep	-12.7553
from	-12.7567
▁sil	-12.7584
BA	-12.7597
illing	-12.7603
lung	-12.7604
race	-12.7606
▁disp	-12.7609
physics	-12.7619
path	-12.7622
stitche	-12.7637
eward	-12.7639
▁pros	-12.765
▁app	-12.7662
dames	-12.7664
▁extra	-12.7665
▁sal	-12.7671
▁hus	-12.7698
ssenger	-12.77
test	-12.7712
ined	-12.7732
rung	-12.7743
nea	-12.7759
aliciously	-12.7789
speeding	-12.7801
ters	-12.781
▁Pl	-12.782
mocked	-12.7844
▁Du	-12.7862
▁cha	-12.7869
cian	-12.7882
used	-12.7922
ited	-12.7924
▁Inclin	-12.795
▁lea	-12.7989
mit	-12.7989
▁acc	-12.8009
▁conc	-12.8024
hast	-12.8031
▁Win	-12.8044
estride	-12.8045
▁heav	-12.8051
▁Unse	-12.8059
▁fra	-12.8063
▁unroo	-12.8073
▁Kates	-12.8074
nts	-12.8086
▁hall	-12.8098
ou	-12.8103
▁cont	-12.8116
ork	-12.8159
gno	-12.8161
▁dub	-12.8165
▁PE	-12.8173
ouched	-12.8178
▁har	-12.824
▁repa	-12.826
pac	-12.8282
wi	-12.8288
▁institut	-12.8297
▁parlo	-12.8301
ufficeth	-12.831
▁bruise	-12.8316
ffer	-12.832
▁Ran	-12.8333
▁vi	-12.8394
judici	-12.8396
▁cob	-12.8399
▁Gri	-12.8399
imitation	-12.8402
umbling	-12.8408
then	-12.8408
tock	-12.8414
lled	-12.8419
▁Pri	-12.8424
▁cele	-12.8431
they	-12.8437
▁psal	-12.8444
▁Stab	-12.8447
hip	-12.8457
▁fin	-12.8466
die	-12.8466
bides	-12.8476
▁tri	-12.8508
▁Ju	-12.8529
▁Whit	-12.853
pa	-12.8555
▁carous	-12.8557
▁Sha	-12.8564
act	-12.8606
nfused	-12.8614
▁comp	-12.8614
hath	-12.8633
ok	-12.8652
cup	-12.8663
coffin	-12.8672
▁gu	-12.8673
cus	-12.8678
▁thi	-12.8713
ms	-12.8732
joy	-12.8733
shot	-12.8735
▁bat	-12.8756
lew	-12.8764
ozen	-12.8769
noble	-12.8782
eries	-12.879
▁adopt	-12.8792
▁Min	-12.8799
▁bard	-12.8813
gle	-12.8822
▁theme	-12.8842
rk	-12.8848
rior	-12.8858
per	-12.8858
▁chari	-12.8865
▁sti	-12.8871
even	-12.8891
▁concludes	-12.8928
lu	-12.8937
upon	-12.8946
▁Honour	-12.8949
keepers	-12.8961
▁cel	-12.8972
ngs	-12.898
▁unhappi	-12.8985
▁intelligenc	-12.8998
ays	-12.9013
▁Constr	-12.9027
▁bur	-12.9031
ease	-12.9038
▁Reco	-12.9067
▁consum	-12.9077
▁baw	-12.9088
▁v	-12.9108
ports	-12.9141
ustom	-12.9152
▁fre	-12.9153
ming	-12.9172
▁meddl	-12.9173
dress	-12.9175
ards	-12.9178
speak	-12.918
▁Nu	-12.9197
▁Jew	-12.9203
ared	-12.9217
only	-12.9233
ets	-12.9238
name	-12.9254
laud	-12.9254
when	-12.9258
▁Mean	-12.927
loody	-12.9274
els	-12.9282
▁bod	-12.9297
▁Cle	-12.931
mend	-12.9324
▁strives	-12.9333
▁Endu	-12.9333
nchors	-12.9345
▁merri	-12.9348
▁Lea	-12.9349
liver	-12.9361
▁til	-12.9367
ssemble	-12.9369
▁assembl	-12.9375
sting	-12.9389
hither	-12.9409
▁Seem	-12.941
never	-12.9413
▁Trot	-12.9422
▁deput	-12.9423
azzle	-12.9425
▁loa	-12.943
Why	-12.9466
▁nostr	-12.9471
▁Bour	-12.9482
bo	-12.9514
▁stare	-12.9516
llows	-12.9519
ws	-12.9526
lend	-12.9528
▁provokes	-12.9533
hi	-12.9536
lave	-12.9577
▁las	-12.9582
grace	-12.9591
abb	-12.9609
aze	-12.9617
▁hasten	-12.962
▁circl	-12.962
▁Mortal	-12.9626
aws	-12.9631
▁Tru	-12.9649
proof	-12.9658
igma	-12.9679
nwieldy	-12.968
▁unw	-12.9695
hot	-12.9706
▁sto	-12.971
▁Cy	-12.972
Lord	-12.972
▁Tyr	-12.9722
tie	-12.9725
▁Oppos	-12.9735
alm	-12.9742
▁toss	-12.9763
▁Depos	-12.9779
nfusion	-12.978
ocks	-12.9809
▁Heav	-12.9817
eeling	-12.9825
awdry	-12.9841
think	-12.9852
lease	-12.9853
enting	-12.987
trick	-12.987
▁distribut	-12.9871
▁celebrat	-12.9875
Where	-12.9881
iding	-12.9888
mother	-12.9898
▁Refus	-12.9899
▁Pierc	-12.9901
Now	-12.9912
▁hav	-12.9913
▁Hy	-12.9925
▁bea	-12.9929
▁emb	-12.9937
fill	-12.9938
tract	-12.9939
▁fil	-12.9942
hieves	-12.9943
get	-12.9951
▁Led	-12.9952
ncertain	-12.9963
▁cutt	-12.9966
▁char	-12.997
▁pol	-12.9974
▁Tickl	-12.998
ension	-12.998
face	-12.9981
before	-12.9985
ardy	-12.9992
▁Host	-13.0006
stoned	-13.0006
▁Tro	-13.001
▁Bar	-13.0023
▁scrap	-13.0033
▁braver	-13.0043
edge	-13.0062
tance	-13.0073
served	-13.0081
▁sk	-13.0089
▁Forth	-13.0107
iddler	-13.0112
▁En	-13.0115
oy	-13.0121
reech	-13.0126
ss	-13.0127
fear	-13.0134
ately	-13.0134
▁overgo	-13.0142
▁tap	-13.0143
chance	-13.0159
arlet	-13.0163
▁Rev	-13.0171
reat	-13.0179
Your	-13.019
▁apo	-13.019
ibel	-13.0193
Warwick	-13.0199
edly	-13.0202
meats	-13.0205
RDIN	-13.0212
ender	-13.0219
Then	-13.0245
echery	-13.0251
poor	-13.0251
mix	-13.0257
daughter	-13.0262
ncing	-13.0275
better	-13.0284
portance	-13.0291
Go	-13.03
▁aud	-13.0315
▁inv	-13.0321
▁sheer	-13.0322
▁gest	-13.0332
▁qua	-13.0335
gard	-13.0342
point	-13.0342
▁infe	-13.0351
▁preserv	-13.0352
aper	-13.0352
▁prov	-13.0353
lest	-13.0365
keep	-13.0371
▁impres	-13.038
▁unwa	-13.0391
weep	-13.0393
vy	-13.0399
Well	-13.0426
words	-13.0431
▁rescu	-13.0432
▁expi	-13.0433
peace	-13.0441
▁plante	-13.0447
venged	-13.0462
dead	-13.047
high	-13.0475
▁inqui	-13.0488
power	-13.0495
▁repro	-13.0501
pture	-13.0502
ax	-13.0503
gentle	-13.0506
lady	-13.0508
thus	-13.0509
earing	-13.0514
▁Sham	-13.0533
▁Exa	-13.0534
nance	-13.0539
AS	-13.0549
Nurse	-13.055
▁furr	-13.0554
Shall	-13.056
deed	-13.0561
might	-13.0576
mean	-13.0577
ked	-13.0578
welling	-13.0578
reason	-13.058
▁squ	-13.0587
heerly	-13.0588
▁figur	-13.0599
▁importun	-13.0603
bring	-13.0612
▁therewith	-13.0621
Clarence	-13.0622
▁Immediate	-13.0626
title	-13.063
Will	-13.0632
Sir	-13.0635
answer	-13.0637
believe	-13.0643
tail	-13.0645
▁Temper	-13.0655
bid	-13.0663
▁unfil	-13.0664
ont	-13.0666
cousin	-13.0666
▁mai	-13.0668
▁overwe	-13.0669
tart	-13.0673
thine	-13.0681
▁Crow	-13.0687
▁Infus	-13.0694
whom	-13.0697
RDI	-13.0701
▁Kin	-13.0723
rise	-13.0728
gratitude	-13.0733
cry	-13.0747
▁Beau	-13.0759
please	-13.0769
They	-13.0772
ulate	-13.0774
▁Ag	-13.0803
▁Wot	-13.0811
▁jo	-13.0816
▁Ret	-13.0819
matter	-13.0823
▁wherewith	-13.0831
arities	-13.0836
thwith	-13.0838
madam	-13.0845
rip	-13.0847
wish	-13.0851
gi	-13.0854
villain	-13.0855
down	-13.0856
More	-13.0857
cape	-13.0858
▁Mend	-13.0858
arms	-13.087
mitiga	-13.0871
vil	-13.0874
Though	-13.0875
mercy	-13.088
farewell	-13.088
wind	-13.088
found	-13.0886
broad	-13.0886
isclaim	-13.089
idity	-13.0891
hole	-13.0893
▁purchas	-13.0894
break	-13.0895
Look	-13.09
uncle	-13.0906
change	-13.0907
after	-13.0908
ition	-13.091
holy	-13.0911
none	-13.0911
▁dedicat	-13.0912
▁Exp	-13.0914
broke	-13.0915
mind	-13.0919
warrant	-13.0921
▁unloo	-13.0922
Farewell	-13.0924
Signior	-13.0925
training	-13.0928
pluck	-13.0933
phe	-13.0937
service	-13.0938
general	-13.094
heard	-13.094
marry	-13.0942
beards	-13.0945
report	-13.0949
▁presag	-13.095
uf	-13.0956
care	-13.0957
ngelica	-13.0958
faith	-13.096
comb	-13.0966
far	-13.0966
corn	-13.0972
nurse	-13.0974
member	-13.0977
haste	-13.098
enemy	-13.0985
Pray	-13.0987
Madam	-13.0993
▁accomp	-13.0994
roach	-13.0997
rove	-13.0999
women	-13.0999
▁Brea	-13.1001
breach	-13.1004
▁jog	-13.1009
laus	-13.1009
▁hur	-13.1013
▁dar	-13.1014
field	-13.1015
▁Env	-13.1017
mock	-13.1018
tender	-13.102
idings	-13.1025
ertile	-13.1026
ptuous	-13.1031
unt	-13.1033
▁carna	-13.1036
mile	-13.1036
tale	-13.1043
▁ungen	-13.1047
lph	-13.1047
pale	-13.1055
flies	-13.1064
vention	-13.1064
tle	-13.1069
Welcome	-13.1071
bish	-13.1074
hook	-13.1075
Margaret	-13.1075
retches	-13.1076
eaching	-13.1081
merry	-13.1083
culli	-13.1083
zzle	-13.1085
utation	-13.109
waking	-13.1091
cheque	-13.1094
kiss	-13.1095
Saint	-13.1099
▁Roug	-13.1102
esty	-13.1102
deep	-13.1104
science	-13.1105
thrift	-13.1105
voice	-13.1106
breast	-13.1106
offence	-13.1109
bawd	-13.111
risto	-13.1112
promise	-13.1116
rid	-13.1119
flaw	-13.1119
chamber	-13.1126
▁privileg	-13.1128
cross	-13.113
banishment	-13.1133
measure	-13.1134
Peace	-13.1135
soldier	-13.1138
pipe	-13.1139
▁discomf	-13.114
conscience	-13.1142
Hark	-13.1143
▁burr	-13.1146
moon	-13.1148
servant	-13.1149
possible	-13.1149
j	-13.1152
ju	-13.1154
Sirrah	-13.1154
known	-13.1155
vow	-13.1155
guard	-13.1157
▁ra	-13.116
hoop	-13.1161
almost	-13.1162
keeper	-13.1164
med	-13.1167
lordship	-13.1169
swift	-13.1169
occup	-13.117
equal	-13.1174
ction	-13.1175
appare	-13.1175
hours	-13.1175
foolish	-13.1176
constru	-13.1177
Pardon	-13.1179
judgment	-13.1181
question	-13.1184
fruit	-13.1187
term	-13.1187
intelligen	-13.119
order	-13.1192
etty	-13.1193
Forgive	-13.1197
catch	-13.12
safe	-13.12
truck	-13.1203
five	-13.1208
▁unst	-13.1209
neck	-13.121
advantage	-13.1211
brook	-13.1212
plague	-13.1213
dream	-13.1213
vaunt	-13.1214
▁Livi	-13.1215
aintain	-13.1216
satisfied	-13.1216
▁convenien	-13.1217
▁savour	-13.1217
Friar	-13.1217
wink	-13.1219
gentlewoman	-13.1221
castle	-13.1221
parent	-13.1222
circle	-13.1224
finger	-13.1225
fatal	-13.1227
storm	-13.1227
dinner	-13.123
Alla	-13.1231
Beseech	-13.1233
temperate	-13.1233
meet	-13.1235
unjust	-13.1235
base	-13.1237
wild	-13.1238
bank	-13.1239
brow	-13.1239
beloved	-13.1239
ybeard	-13.1239
contract	-13.1239
provided	-13.124
very	-13.124
Sicilia	-13.124
rich	-13.1241
Death	-13.1243
guide	-13.1244
▁mil	-13.1245
▁Beat	-13.1246
giving	-13.1246
Widow	-13.1246
whither	-13.1248
amazed	-13.1248
clout	-13.1248
cricket	-13.125
Sicinius	-13.125
supposed	-13.125
borough	-13.125
deserving	-13.125
jealous	-13.1251
Simois	-13.1251
Priami	-13.1252
verdict	-13.1252
fishes	-13.1252
negligent	-13.1253
angel	-13.1253
bench	-13.1253
conduct	-13.1254
gallant	-13.1256
auspicious	-13.1256
reverence	-13.1256
rhyme	-13.1256
contempt	-13.1256
employ	-13.1256
ecute	-13.1257
barr	-13.1258
stroke	-13.1258
vitae	-13.126
hunt	-13.126
blade	-13.126
quarters	-13.1261
spake	-13.1261
lackey	-13.1261
yonder	-13.1263
buzz	-13.1263
bird	-13.1263
Jack	-13.1263
vict	-13.1263
feather	-13.1264
sickness	-13.1264
fathom	-13.1264
candle	-13.1266
anchor	-13.1267
moveable	-13.1268
rule	-13.1269
dowry	-13.1269
bleeding	-13.1269
car	-13.127
hungry	-13.1272
paradise	-13.1272
Tribunes	-13.1273
visage	-13.1273
purse	-13.1273
goddess	-13.1273
quake	-13.1274
ages	-13.1275
▁wage	-13.1275
Jesu	-13.1275
jump	-13.1275
grandfather	-13.1276
adly	-13.1276
meditation	-13.1276
stomach	-13.1276
prize	-13.1277
dainty	-13.1277
growing	-13.1277
Soft	-13.1277
Wilt	-13.1278
dolour	-13.1278
chosen	-13.1278
burden	-13.1278
interpret	-13.1279
wolf	-13.1279
breeding	-13.1279
garment	-13.1279
wheels	-13.1279
derived	-13.1279
levied	-13.1279
Content	-13.1279
foes	-13.128
incensed	-13.1281
arraign	-13.1281
disposed	-13.1281
councils	-13.1282
elf	-13.1282
perch	-13.1283
wooing	-13.1283
spear	-13.1284
mildly	-13.1285
framed	-13.1285
cat	-13.1285
shield	-13.1286
learned	-13.1287
baby	-13.129
shut	-13.129
substantial	-13.129
oint	-13.129
branch	-13.129
▁Emb	-13.1291
wounded	-13.1292
anointed	-13.1292
paint	-13.1295
month	-13.1296
gotten	-13.1296
spent	-13.1297
tuff	-13.1297
folks	-13.1297
▁differenc	-13.1298
resolved	-13.1299
tribune	-13.13
pregnant	-13.1301
By	-13.1304
begot	-13.1304
Still	-13.1308
current	-13.1308
▁Valenti	-13.1308
burning	-13.1308
meaning	-13.1308
prop	-13.1309
larum	-13.1309
usurp	-13.131
lodged	-13.1312
quench	-13.1312
▁dainti	-13.1312
cases	-13.1313
ucking	-13.1315
mount	-13.1317
large	-13.1318
divin	-13.1319
build	-13.132
purchase	-13.1321
poli	-13.1322
minister	-13.1323
rated	-13.1323
damn	-13.1323
drops	-13.1324
Do	-13.1325
▁unro	-13.1325
took	-13.1326
radition	-13.1327
▁grudg	-13.1328
spice	-13.1328
bility	-13.1329
pendent	-13.133
▁provinc	-13.1332
ruised	-13.1332
crest	-13.1333
woe	-13.1336
earthly	-13.1336
egal	-13.1337
lane	-13.1341
considered	-13.1341
meeting	-13.1342
▁nurs	-13.1344
▁instal	-13.1344
affright	-13.1345
suit	-13.1347
Tear	-13.1348
devour	-13.1351
conceive	-13.1351
weighing	-13.1352
flay	-13.1355
gird	-13.1357
dragon	-13.1359
ines	-13.1361
stooping	-13.1361
Rise	-13.1361
proportion	-13.1361
Two	-13.1363
▁sham	-13.1366
strip	-13.1367
prey	-13.1367
pierce	-13.1368
wasted	-13.137
itors	-13.1377
wed	-13.1377
▁sacrific	-13.1377
▁impuden	-13.1378
mantle	-13.138
sleeping	-13.1382
thorn	-13.1382
wail	-13.1386
furnish	-13.1387
shunn	-13.1389
Fair	-13.139
aspir	-13.1395
descried	-13.1398
dispos	-13.1399
mate	-13.1399
cheer	-13.1399
pot	-13.1401
evils	-13.1404
sainted	-13.141
▁chapl	-13.141
crowned	-13.141
▁promis	-13.1415
perfect	-13.1415
bone	-13.1415
thick	-13.1415
breech	-13.1417
▁beguil	-13.1419
qual	-13.142
standing	-13.142
stood	-13.1421
titude	-13.1421
▁Cont	-13.1422
Sig	-13.1423
▁shear	-13.1429
mpire	-13.143
▁adj	-13.1432
profit	-13.1433
eep	-13.1434
skins	-13.1434
▁Bro	-13.1436
shown	-13.1437
▁appli	-13.1438
salute	-13.1442
▁Ben	-13.1443
▁courte	-13.1443
alion	-13.1444
▁roote	-13.1444
ecutor	-13.1444
mper	-13.1445
pron	-13.1446
access	-13.1448
▁excel	-13.1449
▁requir	-13.1452
jury	-13.1453
mates	-13.1454
▁multitud	-13.1456
verse	-13.1459
ntory	-13.1459
leap	-13.1461
▁whosoe	-13.1463
rossly	-13.1466
▁exhale	-13.1469
▁cannibal	-13.1469
▁kernel	-13.1469
▁promotion	-13.147
hardy	-13.1471
▁stagger	-13.1471
▁repos	-13.1471
▁complot	-13.1472
▁club	-13.1472
▁resemble	-13.1473
▁exte	-13.1473
▁appar	-13.1477
▁minstrel	-13.148
▁orphan	-13.148
imple	-13.1481
▁streak	-13.1481
▁howsoe	-13.1481
hail	-13.1481
ushions	-13.1482
▁Concei	-13.1483
▁exclaim	-13.1483
▁conserve	-13.1483
▁ducat	-13.1484
held	-13.1486
liar	-13.1486
▁statute	-13.1488
▁ancestor	-13.1488
etitioners	-13.1489
▁patrician	-13.1489
▁senator	-13.149
▁seiz	-13.1491
▁manacle	-13.1492
bait	-13.1493
tinies	-13.1495
▁warrior	-13.1497
▁embracement	-13.1498
▁alway	-13.1499
starve	-13.1502
▁deb	-13.1502
▁Mil	-13.1502
▁coffer	-13.1503
dares	-13.1504
ttorney	-13.1506
ccomplish	-13.1506
roperly	-13.1507
▁princ	-13.1507
pprehend	-13.1508
voided	-13.1509
▁attendant	-13.1509
dvocate	-13.151
eek	-13.1511
chieve	-13.1512
bsolute	-13.1512
piled	-13.1512
tricks	-13.1513
uthority	-13.1513
udience	-13.1513
ccident	-13.1514
grav	-13.1514
▁pike	-13.1515
▁opposer	-13.1515
buried	-13.1516
▁kite	-13.1517
pparent	-13.1518
ummers	-13.1518
▁Revol	-13.1519
ppointed	-13.1519
sci	-13.1519
uc	-13.1521
con	-13.1522
hippe	-13.1523
She	-13.1525
▁sprite	-13.1526
Dear	-13.1526
▁arbitr	-13.1526
▁Turk	-13.1528
pproach	-13.153
gues	-13.153
▁lan	-13.1533
nip	-13.1533
lected	-13.1534
liest	-13.1535
▁release	-13.1535
▁obscure	-13.1536
▁decease	-13.1537
quality	-13.1538
▁Marc	-13.1539
▁advertise	-13.154
eople	-13.154
zard	-13.154
▁trumpe	-13.154
spread	-13.1541
apparel	-13.1541
▁despise	-13.1541
ccuse	-13.1541
easonable	-13.1542
▁trifle	-13.1542
▁embrac	-13.1543
▁deface	-13.1543
▁displease	-13.1544
In	-13.1544
ability	-13.1545
rants	-13.1545
▁measur	-13.1547
▁miscarr	-13.1548
▁griev	-13.1549
▁peruse	-13.1549
▁diff	-13.1549
▁trifl	-13.155
▁permi	-13.1551
▁prepar	-13.1553
winds	-13.1553
▁charg	-13.1553
efactors	-13.1554
▁pronounc	-13.1554
▁raz	-13.1556
▁Basta	-13.1556
▁advis	-13.1557
▁persuad	-13.1561
▁defen	-13.1562
▁stink	-13.1562
▁settle	-13.1567
uspicious	-13.1567
▁accord	-13.1567
▁immode	-13.1567
ncient	-13.1567
▁Impri	-13.1568
▁vehemen	-13.1568
▁medicin	-13.1569
ttach	-13.1569
unci	-13.1569
▁miserabl	-13.1569
▁combin	-13.1569
▁sensibl	-13.1569
believ	-13.157
buckle	-13.1571
bad	-13.1572
lical	-13.1572
stock	-13.1572
▁constan	-13.1572
▁bol	-13.1575
▁knav	-13.1576
ilver	-13.1576
eye	-13.1577
render	-13.1577
▁riddl	-13.1578
▁grumbl	-13.1578
▁refus	-13.1578
bearing	-13.1579
▁imitat	-13.1579
▁benefi	-13.1579
▁Decei	-13.1579
▁ventur	-13.1581
▁ad	-13.1583
▁Maria	-13.1585
seeing	-13.1585
▁betid	-13.1586
▁appoint	-13.1587
▁kil	-13.1587
▁Adria	-13.1588
▁perjur	-13.1588
▁Redeem	-13.1588
▁perpetu	-13.1589
▁sympath	-13.1589
▁mutin	-13.1589
▁merchan	-13.159
▁Prosper	-13.1591
▁Beside	-13.1591
▁chivalr	-13.1591
avours	-13.1591
▁argos	-13.1591
▁collect	-13.1591
▁viol	-13.1592
▁prophes	-13.1593
▁Despis	-13.1594
▁Luc	-13.1594
▁tribut	-13.1594
▁convent	-13.1594
ubscribe	-13.1594
choolmaster	-13.1594
▁charact	-13.1595
▁decre	-13.1595
uspicion	-13.1595
▁deriv	-13.1595
atisfy	-13.1596
▁suff	-13.1596
pirits	-13.1596
uccessful	-13.1596
uddenly	-13.1596
▁Baptist	-13.1597
▁immediate	-13.1597
▁mirac	-13.1597
▁commonweal	-13.1597
▁scrup	-13.1597
nterpret	-13.1597
bedience	-13.1597
▁societ	-13.1598
apster	-13.1598
alas	-13.1598
▁penalt	-13.1598
▁majest	-13.1599
atches	-13.1599
ectives	-13.1599
nspire	-13.1599
nsolent	-13.16
▁circu	-13.16
▁Bianc	-13.16
ncapable	-13.16
▁clergym	-13.1601
▁buz	-13.1601
▁infirmit	-13.1601
iscarried	-13.1601
nfected	-13.1601
stincti	-13.1601
lemish	-13.1602
▁elev	-13.1602
uccessive	-13.1602
tifle	-13.1602
revol	-13.1602
▁transgressi	-13.1602
skilful	-13.1602
positi	-13.1602
▁submissi	-13.1602
utiful	-13.1602
urably	-13.1602
▁vapo	-13.1602
urchase	-13.1603
▁descri	-13.1603
istinguish	-13.1603
▁rebellio	-13.1603
lossom	-13.1603
onspirator	-13.1604
amiliar	-13.1604
▁wagon	-13.1604
▁dignit	-13.1604
hysic	-13.1604
dvantag	-13.1604
istemper	-13.1604
fliction	-13.1604
rinkle	-13.1604
▁ceremoni	-13.1604
ecessity	-13.1604
onduct	-13.1605
erfume	-13.1605
erpetual	-13.1605
onqueror	-13.1605
reposterous	-13.1605
usband	-13.1605
orrupt	-13.1605
▁Priam	-13.1605
aults	-13.1605
achiev	-13.1605
dispers	-13.1605
orrection	-13.1605
llaying	-13.1605
hrug	-13.1605
eprieve	-13.1605
cipline	-13.1605
▁eloquen	-13.1605
violat	-13.1605
▁fornicat	-13.1605
▁pestilen	-13.1605
franchise	-13.1606
ncludes	-13.1606
▁diligen	-13.1606
ancies	-13.1606
efiance	-13.1606
tigation	-13.1606
▁Abhor	-13.1606
efend	-13.1606
▁embassa	-13.1606
sufficienc	-13.1606
▁unwilli	-13.1606
eparation	-13.1606
whistl	-13.1606
nounced	-13.1606
▁Prodig	-13.1606
▁plebei	-13.1606
▁distract	-13.1606
▁barbari	-13.1606
ecline	-13.1606
ctator	-13.1606
▁fantas	-13.1606
bilities	-13.1606
onclud	-13.1606
pprob	-13.1606
▁maj	-13.1606
▁Petruc	-13.1606
▁ingrate	-13.1606
▁beautif	-13.1606
rwick	-13.1607
▁malign	-13.1607
erciful	-13.1607
nuate	-13.1607
voli	-13.1607
mination	-13.1607
eproach	-13.1607
▁luna	-13.1607
▁rabb	-13.1607
dvertis	-13.1607
aniel	-13.1607
hristen	-13.1607
ongeal	-13.1607
uarrel	-13.1607
▁encourage	-13.1608
▁handkerch	-13.1608
fidius	-13.1608
▁Petr	-13.1608
▁tempora	-13.1608
▁degr	-13.1608
creant	-13.1608
voca	-13.1608
etera	-13.1609
▁popul	-13.1609
▁ambi	-13.1609
shed	-13.1609
curri	-13.1609
anifest	-13.1609
monious	-13.1609
erva	-13.1609
▁distinct	-13.161
ullus	-13.161
rimm	-13.161
▁consequen	-13.161
ragement	-13.1611
gran	-13.1611
▁abus	-13.1612
▁whatsoe	-13.1612
oncern	-13.1612
▁alac	-13.1612
eapons	-13.1612
icatr	-13.1612
▁unsati	-13.1612
undation	-13.1613
broth	-13.1613
allia	-13.1613
▁fulfill	-13.1613
believed	-13.1613
versal	-13.1614
▁stoc	-13.1614
esume	-13.1615
leges	-13.1615
steem	-13.1615
▁blemishe	-13.1615
gative	-13.1615
▁meditati	-13.1616
▁impri	-13.1616
gia	-13.1616
sprit	-13.1617
lusters	-13.1617
overeign	-13.1618
▁hollo	-13.1618
ondage	-13.1618
bell	-13.1618
▁squir	-13.1618
cule	-13.1619
ubdue	-13.1619
nual	-13.1619
▁gild	-13.162
▁furni	-13.162
bub	-13.1621
edlar	-13.1621
quired	-13.1621
▁trans	-13.1621
finish	-13.1621
▁vanit	-13.1621
▁underta	-13.1621
umph	-13.1622
imble	-13.1622
▁kern	-13.1622
▁uncl	-13.1622
ledged	-13.1622
▁carb	-13.1623
▁filth	-13.1623
▁Marian	-13.1623
twig	-13.1623
acle	-13.1624
▁univers	-13.1624
ishonourable	-13.1624
uddy	-13.1624
▁conv	-13.1625
ilia	-13.1625
candal	-13.1626
▁Clar	-13.1626
▁Laur	-13.1626
▁compani	-13.1627
ishmen	-13.1627
script	-13.1628
irra	-13.1628
berries	-13.1629
lague	-13.1629
peration	-13.163
▁raisin	-13.1631
cum	-13.1632
▁Ingrat	-13.1633
rawl	-13.1633
tinct	-13.1634
▁Repe	-13.1634
nherit	-13.1635
arque	-13.1635
evish	-13.1635
pillars	-13.1635
▁crime	-13.1636
ormity	-13.1637
▁prim	-13.1637
plex	-13.1637
eguiled	-13.1637
▁proba	-13.1638
uary	-13.164
▁marsh	-13.1641
mooth	-13.1641
▁Rebe	-13.1642
lanc	-13.1643
whelm	-13.1643
▁palmer	-13.1644
zards	-13.1644
▁arbitrat	-13.1644
seal	-13.1645
diction	-13.1645
appear	-13.1645
▁jour	-13.1646
gma	-13.1646
eachment	-13.1646
▁traged	-13.1648
▁cens	-13.1648
tation	-13.165
▁barb	-13.1652
mprison	-13.1652
pric	-13.1653
▁promo	-13.1653
▁Dau	-13.1653
eautiful	-13.1653
▁Jac	-13.1653
▁relie	-13.1653
recept	-13.1654
uard	-13.1654
erweigh	-13.1655
▁neigh	-13.1655
enefactors	-13.1655
cius	-13.1657
astards	-13.1658
▁shoe	-13.1658
▁sna	-13.1658
▁Def	-13.1659
ctable	-13.1659
oriz	-13.166
zel	-13.166
dared	-13.1661
arkl	-13.1662
ophy	-13.1662
ontract	-13.1664
▁execut	-13.1664
dmit	-13.1664
tracting	-13.1664
ncil	-13.1666
centio	-13.1666
▁jou	-13.1666
oon	-13.1669
▁dispa	-13.1669
eldom	-13.1669
vid	-13.167
▁rem	-13.1674
ppery	-13.1676
emnant	-13.1678
larums	-13.1678
▁rive	-13.1678
▁flour	-13.168
inkles	-13.1681
mbitio	-13.1681
▁Sub	-13.1682
sequence	-13.1682
gments	-13.1685
erthrown	-13.1685
stuff	-13.1687
▁plan	-13.1687
zy	-13.1687
hors	-13.1689
hipped	-13.1689
▁substitut	-13.169
hound	-13.1691
barbe	-13.1693
▁Clare	-13.1694
▁fru	-13.1694
evised	-13.1695
ads	-13.1696
ainting	-13.1696
▁soci	-13.1698
bine	-13.1699
died	-13.17
acent	-13.17
▁Unb	-13.17
enter	-13.1701
ressing	-13.1701
hamele	-13.1702
laughters	-13.1703
▁differ	-13.1703
▁dot	-13.1703
hurt	-13.1704
kly	-13.1706
ral	-13.1707
▁dig	-13.1708
▁nip	-13.1708
▁Mino	-13.1711
perin	-13.1711
riously	-13.1713
raft	-13.1713
bos	-13.1715
▁confi	-13.1715
neel	-13.1717
▁canop	-13.1718
▁corre	-13.1719
▁capit	-13.1719
▁squi	-13.1721
aliant	-13.1722
▁replie	-13.1723
▁equall	-13.1725
pable	-13.1727
position	-13.1727
▁unsp	-13.1729
feeling	-13.1732
mould	-13.1734
mira	-13.1734
plotted	-13.1735
attern	-13.1735
raying	-13.1736
edime	-13.1737
▁dispos	-13.1737
torship	-13.1741
▁hyp	-13.1741
catche	-13.1744
▁Blu	-13.1744
▁reveren	-13.1745
▁pow	-13.1747
ounty	-13.1747
oze	-13.1747
leven	-13.1747
▁divin	-13.1751
▁coron	-13.1752
▁unv	-13.1753
▁assu	-13.1754
▁wool	-13.1759
oc	-13.1759
▁Yond	-13.176
spokes	-13.1761
▁Hung	-13.1762
graced	-13.1766
▁butterfl	-13.1767
▁Flor	-13.1768
▁ancest	-13.177
endar	-13.1771
▁interchang	-13.1771
ltitude	-13.1776
curse	-13.1776
▁Marg	-13.178
▁moder	-13.178
▁Nap	-13.1782
holer	-13.1783
kling	-13.1789
▁partic	-13.1789
acts	-13.1789
nius	-13.1793
year	-13.1795
▁Sign	-13.1797
harp	-13.1798
ctly	-13.1798
herish	-13.18
umour	-13.18
holder	-13.18
isted	-13.1804
▁accurs	-13.1807
cles	-13.181
▁hono	-13.1812
▁thresh	-13.1814
gorge	-13.1815
hoped	-13.1815
xed	-13.1816
vines	-13.1816
gness	-13.1816
discern	-13.1819
▁Bac	-13.182
▁whist	-13.1821
jo	-13.1825
▁Aga	-13.1826
tino	-13.1828
kul	-13.1831
icle	-13.1834
▁Unsh	-13.1834
dation	-13.1835
▁whoso	-13.1835
▁trot	-13.1835
land	-13.1836
▁debat	-13.1837
▁tick	-13.1841
dying	-13.1841
ssive	-13.1841
▁signor	-13.1844
oughly	-13.1844
itiful	-13.1845
▁ar	-13.1846
mises	-13.1847
terate	-13.1848
isses	-13.1855
▁famil	-13.186
▁Fri	-13.1861
▁eve	-13.1862
rato	-13.1863
▁capa	-13.1865
▁slee	-13.1868
itation	-13.1873
mast	-13.1878
ran	-13.1883
bon	-13.1885
erjury	-13.1886
ditional	-13.1892
nally	-13.1894
▁accuser	-13.1895
▁Tim	-13.1897
seduc	-13.1898
deserved	-13.1898
ife	-13.19
ncourage	-13.19
▁furn	-13.19
olish	-13.1901
▁App	-13.1904
rdon	-13.1909
▁lieu	-13.191
oundly	-13.1913
▁seld	-13.1915
uitors	-13.1917
ntenance	-13.1917
ckled	-13.192
▁Reve	-13.1921
▁sla	-13.1922
▁tal	-13.1926
▁descr	-13.1927
elonging	-13.1929
mew	-13.1933
▁barn	-13.1936
ransform	-13.1942
▁belie	-13.1944
rtle	-13.1945
borne	-13.1948
mbrace	-13.195
ius	-13.195
aining	-13.1952
ium	-13.1953
▁miscarrie	-13.1961
inch	-13.1965
xecute	-13.1966
▁ver	-13.1967
bitte	-13.1968
owling	-13.197
asion	-13.1971
nail	-13.1971
▁cord	-13.1977
lion	-13.1984
bused	-13.1987
estima	-13.1989
resum	-13.199
▁boats	-13.1992
asted	-13.1992
iously	-13.1995
espair	-13.1996
ravel	-13.1997
colour	-13.1999
▁temperate	-13.2
▁hai	-13.2003
ority	-13.2005
sequent	-13.2006
ipper	-13.2013
▁opposit	-13.2015
ient	-13.2017
ank	-13.2018
wound	-13.2023
▁accou	-13.2024
nation	-13.2026
sounding	-13.2026
tless	-13.2027
▁pear	-13.2029
sworn	-13.2031
▁ME	-13.2032
nev	-13.2033
▁intelligen	-13.2034
▁forgiven	-13.2036
▁wal	-13.2038
hop	-13.2038
▁worthie	-13.2044
ontempt	-13.2054
imper	-13.2055
▁est	-13.2058
▁deformit	-13.2058
▁occup	-13.2058
bery	-13.2059
lps	-13.2061
▁mills	-13.2064
gems	-13.2065
lready	-13.2065
fare	-13.2068
hol	-13.2069
ntents	-13.2069
veril	-13.2069
▁appe	-13.2073
▁fet	-13.2074
▁Hasting	-13.2077
▁Bur	-13.208
amous	-13.2083
rece	-13.2086
true	-13.2086
vision	-13.2087
▁Te	-13.2088
prove	-13.2094
pits	-13.2094
andon	-13.2096
sition	-13.2101
▁counsell	-13.2103
seven	-13.2105
olate	-13.2106
ertake	-13.2113
raze	-13.2114
▁Sug	-13.2127
▁cors	-13.2128
witting	-13.2129
woun	-13.2129
fallible	-13.2132
xy	-13.214
King	-13.2155
▁counterpoi	-13.2158
yster	-13.2165
▁Conten	-13.2165
▁mass	-13.2171
stian	-13.2184
odi	-13.2184
rchers	-13.2191
rged	-13.2193
ected	-13.2196
ereft	-13.22
▁Sup	-13.2201
▁ungentl	-13.2208
▁sens	-13.2209
▁Inter	-13.2211
▁ingr	-13.2214
lways	-13.2218
fellows	-13.2219
tally	-13.222
lif	-13.2222
edious	-13.2226
harden	-13.2226
burn	-13.2229
dra	-13.2229
▁War	-13.2238
ider	-13.2238
uess	-13.2248
▁creat	-13.2259
▁twa	-13.2272
dost	-13.2273
▁methink	-13.2274
usiness	-13.2275
troth	-13.2277
forward	-13.2304
▁atten	-13.2305
ev	-13.231
▁Mene	-13.2313
suck	-13.2319
▁reco	-13.232
▁Serv	-13.2326
relent	-13.233
▁Gallo	-13.2333
enches	-13.2337
▁rei	-13.2348
revent	-13.2374
discover	-13.2378
alus	-13.2381
federa	-13.2382
▁rig	-13.2388
▁vali	-13.2388
yes	-13.239
relate	-13.2397
tack	-13.2399
pr	-13.2413
▁Tur	-13.2416
hoose	-13.2422
start	-13.2429
▁Wor	-13.2434
aunts	-13.2435
popula	-13.2437
▁def	-13.2438
▁Envi	-13.245
andal	-13.2453
xposed	-13.2453
revail	-13.2467
ngratitude	-13.2468
▁capt	-13.2476
▁constru	-13.2478
racious	-13.2479
eauty	-13.248
toop	-13.248
outs	-13.2482
equires	-13.2489
anish	-13.2493
ildly	-13.2494
▁stable	-13.2496
aby	-13.2511
ubs	-13.2514
tyr	-13.2516
pass	-13.2518
fires	-13.2521
▁grip	-13.2523
ids	-13.2527
horses	-13.2529
esides	-13.253
▁mounte	-13.253
▁Fil	-13.2532
oman	-13.2532
romotion	-13.2533
utus	-13.2543
ergo	-13.2543
▁Over	-13.255
▁eyeb	-13.2551
And	-13.2556
▁Sun	-13.2557
pairing	-13.2562
▁Tie	-13.2564
aved	-13.2566
ame	-13.2573
lasses	-13.2588
rinking	-13.2592
▁bot	-13.2593
praise	-13.2598
tru	-13.2612
▁squa	-13.2619
fty	-13.2623
god	-13.2624
mer	-13.2626
▁Marci	-13.263
emperance	-13.2631
cas	-13.2632
skin	-13.2635
▁hotte	-13.2638
oice	-13.2646
town	-13.2653
cel	-13.2656
iquity	-13.2657
▁member	-13.2666
uit	-13.2668
icken	-13.267
▁unman	-13.267
mmediately	-13.2673
vin	-13.2675
▁hoars	-13.2681
▁slipper	-13.2695
aw	-13.2703
chi	-13.2714
ong	-13.2716
sun	-13.2727
curs	-13.2736
patch	-13.2743
▁dow	-13.2749
▁veri	-13.2751
emaker	-13.2756
urel	-13.2764
artial	-13.2766
▁freshe	-13.2767
OS	-13.2767
▁obe	-13.2769
raven	-13.2771
tcher	-13.2771
▁Val	-13.2772
prings	-13.2782
eed	-13.2792
▁hoo	-13.2799
wel	-13.2799
ffended	-13.2804
ourish	-13.2804
chm	-13.2812
▁Shep	-13.2824
▁intell	-13.2825
▁Howe	-13.2828
dise	-13.2832
▁twos	-13.2847
cture	-13.2853
likely	-13.2874
ully	-13.2875
▁embr	-13.2889
arely	-13.289
▁petti	-13.2893
asks	-13.2899
heal	-13.2902
mour	-13.2903
nay	-13.2907
▁senten	-13.2917
rags	-13.2924
▁courtes	-13.2924
▁endur	-13.2924
aints	-13.2925
lush	-13.2933
pin	-13.2945
fined	-13.2967
▁rave	-13.297
buil	-13.2971
▁Somer	-13.2978
imit	-13.3003
inous	-13.3003
weeps	-13.301
walk	-13.3026
▁pens	-13.3032
dove	-13.3034
ercome	-13.3039
Con	-13.3045
alleys	-13.3046
▁gue	-13.3059
mples	-13.3066
▁fi	-13.307
stic	-13.3074
non	-13.3075
egard	-13.3076
ommonly	-13.3093
▁residen	-13.3108
fords	-13.3109
fathers	-13.3115
▁Ga	-13.312
▁inquir	-13.3124
firm	-13.3125
▁Ros	-13.3131
straught	-13.3148
soil	-13.317
tful	-13.3174
▁corner	-13.3178
▁restor	-13.3203
▁generati	-13.3209
▁End	-13.3212
▁Ea	-13.3231
leasing	-13.3252
▁meta	-13.3258
▁levie	-13.3259
▁thwart	-13.3278
▁Shou	-13.3283
▁manif	-13.3288
▁unl	-13.3288
incess	-13.3301
▁Den	-13.3305
ances	-13.3316
evenged	-13.3322
▁col	-13.3328
restrain	-13.3354
salter	-13.336
roduce	-13.3365
▁scree	-13.3367
orship	-13.3368
int	-13.3375
rice	-13.3396
▁curtai	-13.3415
▁stubb	-13.3424
eness	-13.3432
▁appre	-13.3465
roan	-13.3468
▁Sk	-13.3489
loves	-13.3495
▁tak	-13.3503
▁Anton	-13.351
▁wean	-13.3523
▁strik	-13.3529
▁pri	-13.3529
cann	-13.3533
belli	-13.3536
ancing	-13.3555
▁haw	-13.3564
rook	-13.3565
▁journ	-13.3566
ntler	-13.357
▁impo	-13.3575
▁nut	-13.3578
tutor	-13.3585
gh	-13.3595
need	-13.3596
▁mat	-13.3599
ieves	-13.3601
▁smot	-13.3603
slave	-13.3629
roof	-13.3632
lowing	-13.3643
▁und	-13.3652
atch	-13.3656
ignior	-13.3666
rec	-13.3668
RC	-13.3674
▁usur	-13.3699
overture	-13.3722
▁envi	-13.3722
rce	-13.3731
usly	-13.3734
rail	-13.3737
nor	-13.3743
▁warr	-13.3762
▁Sad	-13.3764
▁medl	-13.3767
▁appro	-13.3771
eated	-13.3781
▁sevent	-13.3783
onfusion	-13.3785
▁Tak	-13.3803
▁herdsm	-13.3815
rus	-13.3816
tory	-13.3825
▁Unt	-13.3825
▁abod	-13.3841
rrows	-13.3846
maze	-13.3848
eaviness	-13.3864
said	-13.3874
wares	-13.3889
▁nam	-13.3908
thankfulness	-13.3914
▁brin	-13.3941
▁ey	-13.3968
trong	-13.3978
▁invent	-13.3982
slow	-13.3993
ortality	-13.4013
llop	-13.4032
edit	-13.4035
sake	-13.4036
▁rans	-13.4049
iant	-13.4052
▁marrie	-13.4056
▁Fea	-13.4084
oul	-13.4109
▁Dr	-13.4116
▁crav	-13.4121
▁Wit	-13.4129
rank	-13.413
ina	-13.413
▁Unf	-13.4133
▁herb	-13.4144
▁Gol	-13.4159
arting	-13.4172
carce	-13.4184
onfirm	-13.4196
issemble	-13.4198
iety	-13.4198
rel	-13.4199
▁tard	-13.4214
com	-13.4222
▁abst	-13.4236
aning	-13.4239
poison	-13.424
now	-13.425
burnt	-13.4256
orts	-13.4259
▁spar	-13.4266
▁healths	-13.4269
dies	-13.4282
▁Fal	-13.4302
pur	-13.4306
eel	-13.433
stra	-13.4339
gether	-13.4343
▁chok	-13.4361
▁inte	-13.4384
▁Tyran	-13.4417
rers	-13.4422
dged	-13.4423
▁Vir	-13.444
▁clamo	-13.4444
mem	-13.4452
▁dia	-13.4463
▁servi	-13.4465
leased	-13.4474
matic	-13.4477
ision	-13.448
ndering	-13.4495
lose	-13.45
nform	-13.4507
anners	-13.4534
▁Bal	-13.4561
ct	-13.4587
inces	-13.4591
▁enfo	-13.4633
luck	-13.4645
▁pers	-13.4661
▁Requi	-13.4665
▁merrie	-13.4675
▁Ob	-13.4681
▁scor	-13.4681
leaving	-13.4681
▁perd	-13.469
happiness	-13.4697
eco	-13.4701
ased	-13.4759
ischarge	-13.4764
ingham	-13.4773
▁ali	-13.4786
hings	-13.4787
pt	-13.4792
alled	-13.4793
▁Dot	-13.4796
▁sinn	-13.4799
hee	-13.4807
gai	-13.481
▁hoa	-13.4815
fts	-13.4854
MP	-13.4889
ittance	-13.4891
rges	-13.4895
▁wel	-13.4932
heirs	-13.4933
ases	-13.4953
onourable	-13.4962
bles	-13.499
▁sop	-13.5008
Sit	-13.5023
dings	-13.5032
olves	-13.5067
gaol	-13.5071
▁indi	-13.5088
▁Filli	-13.509
odged	-13.5115
ested	-13.512
rmies	-13.512
rds	-13.5136
▁Gre	-13.514
sted	-13.5151
etter	-13.5182
ass	-13.5184
▁yest	-13.5198
ewel	-13.5207
lainly	-13.5217
onstable	-13.5236
▁summ	-13.526
noon	-13.5272
hy	-13.5278
unes	-13.528
earned	-13.5283
laudi	-13.5297
▁brok	-13.5302
▁sen	-13.5305
▁nothings	-13.5331
ught	-13.5364
awling	-13.5389
tent	-13.544
▁Alla	-13.5472
ldings	-13.5482
doubtful	-13.5488
pbraid	-13.5495
▁net	-13.5504
hinks	-13.5505
lawful	-13.5511
dure	-13.5517
umber	-13.5523
▁Gen	-13.5531
swept	-13.555
arried	-13.5551
▁dec	-13.5557
▁cas	-13.5582
commend	-13.5593
▁abs	-13.5617
ourn	-13.5666
▁myster	-13.5669
inherited	-13.5669
▁Giv	-13.5703
▁stu	-13.5723
▁vel	-13.5726
gate	-13.573
dle	-13.5738
races	-13.5747
▁mart	-13.5755
ightly	-13.5769
▁dism	-13.5772
tar	-13.5796
chasing	-13.5797
hell	-13.581
esture	-13.5824
▁Sav	-13.5831
estruction	-13.5832
▁serv	-13.5837
sset	-13.5855
lve	-13.5865
clip	-13.5867
Fai	-13.587
pes	-13.5904
▁easie	-13.5907
herd	-13.591
▁Gal	-13.5916
seem	-13.5921
ream	-13.5938
astly	-13.5963
ception	-13.5969
atest	-13.5976
▁pushe	-13.5978
▁conse	-13.6002
houses	-13.6073
▁sol	-13.608
omb	-13.6081
iv	-13.6084
bey	-13.6116
ead	-13.6131
emp	-13.6131
hips	-13.6138
ifs	-13.6143
eyond	-13.6148
ights	-13.6199
arp	-13.6206
unting	-13.6238
raci	-13.6239
▁bodi	-13.6252
▁terr	-13.6252
trial	-13.6271
fices	-13.6308
aud	-13.6313
ison	-13.6323
inst	-13.6323
▁imagina	-13.6332
phs	-13.6356
owed	-13.6357
elves	-13.6366
rmed	-13.6382
▁stil	-13.6398
▁jud	-13.6401
nclining	-13.6414
isorder	-13.6445
stain	-13.6468
dge	-13.6472
DI	-13.6519
ys	-13.6522
ches	-13.6552
▁toge	-13.6601
▁Ed	-13.6622
vo	-13.6639
ani	-13.6655
lister	-13.6745
▁bases	-13.676
enti	-13.6789
pace	-13.6801
▁Fat	-13.6802
conce	-13.682
▁fli	-13.6827
▁quarr	-13.687
▁carrie	-13.6882
▁thriv	-13.6913
ony	-13.6928
uckle	-13.6944
alls	-13.6961
▁ea	-13.6992
otten	-13.7005
ERD	-13.7042
▁Bon	-13.7052
nows	-13.7072
▁Ber	-13.7081
▁braw	-13.7124
▁moons	-13.7146
▁Cho	-13.7167
▁perc	-13.7206
acks	-13.721
▁shor	-13.7213
▁coll	-13.7243
sive	-13.7256
ural	-13.7257
res	-13.7396
▁ador	-13.74
▁MA	-13.7415
▁gener	-13.7482
▁confu	-13.7491
alt	-13.7499
▁pulle	-13.7514
gator	-13.7524
ilts	-13.7569
njunction	-13.7614
oiled	-13.7614
thr	-13.7627
▁stander	-13.7637
▁Cal	-13.7657
▁Yon	-13.769
vented	-13.7726
▁committ	-13.7754
▁Bli	-13.7761
estor	-13.7778
▁godde	-13.7817
▁Begu	-13.7841
ladly	-13.7842
nshine	-13.7864
▁guilti	-13.7868
nn	-13.7891
▁shad	-13.7932
lty	-13.7954
ists	-13.7971
▁libe	-13.7977
dling	-13.8002
tchery	-13.801
▁Mas	-13.8037
▁commen	-13.8046
eheaded	-13.8076
▁Supp	-13.8104
▁whate	-13.8121
▁contrari	-13.8141
told	-13.8141
▁admitt	-13.8144
eir	-13.8164
note	-13.8165
dible	-13.8196
ntic	-13.8207
sure	-13.8217
ubb	-13.8235
▁ti	-13.826
onest	-13.8289
tre	-13.8323
lting	-13.8341
ighting	-13.8344
▁impu	-13.8349
▁incre	-13.838
signs	-13.8381
hereby	-13.8389
rope	-13.8415
NU	-13.8427
queath	-13.8497
▁ungra	-13.8506
rush	-13.8512
▁sple	-13.8518
rote	-13.8532
onder	-13.8536
rder	-13.8551
▁conte	-13.8552
tag	-13.8554
ea	-13.8578
▁amaz	-13.8599
▁au	-13.8623
ston	-13.8627
rates	-13.8641
▁toy	-13.8703
li	-13.8784
▁ja	-13.8801
lour	-13.8817
oping	-13.8829
owest	-13.8844
ange	-13.8848
luc	-13.8863
▁fines	-13.888
aves	-13.8881
wallow	-13.8884
▁Curs	-13.8934
ger	-13.8943
ATE	-13.8964
mly	-13.8964
pain	-13.8984
ric	-13.8989
sping	-13.8989
ures	-13.8997
▁Spe	-13.9049
ues	-13.9059
▁kn	-13.9107
vi	-13.9141
lead	-13.9157
unto	-13.9159
▁pur	-13.9252
poised	-13.9252
▁defi	-13.9269
bating	-13.9317
inc	-13.9324
ntry	-13.9354
▁BE	-13.9362
vouches	-13.9364
ewness	-13.9402
▁ami	-13.9419
port	-13.9453
irt	-13.9459
▁wors	-13.9477
▁forge	-13.9517
upid	-13.9526
▁bor	-13.9528
entlewoman	-13.9559
▁Wr	-13.9568
▁stru	-13.9577
llen	-13.9739
ue	-13.9754
pined	-13.9776
▁freed	-13.9777
eared	-13.9781
▁stretche	-13.979
ken	-13.9821
▁Whi	-13.9826
clining	-13.9852
houghts	-13.9877
▁extr	-13.9897
eld	-13.9958
▁forc	-13.998
▁por	-14.0065
imself	-14.0077
▁Hall	-14.0124
▁que	-14.0142
▁lu	-14.0165
▁ki	-14.0174
eaded	-14.0176
bruised	-14.0202
ocked	-14.023
iving	-14.0285
appiness	-14.0299
unge	-14.0346
ha	-14.0364
▁pul	-14.0424
sm	-14.044
▁mars	-14.0441
ooking	-14.0467
riest	-14.0515
▁ret	-14.0523
thrown	-14.0547
▁Pen	-14.0558
▁whi	-14.0586
▁Gran	-14.0628
▁Faste	-14.064
orse	-14.0657
xpress	-14.0691
▁glu	-14.0746
ned	-14.0775
inder	-14.0794
mple	-14.0807
rial	-14.082
erial	-14.0837
stable	-14.0845
obeys	-14.0884
sing	-14.0928
hin	-14.0972
eeds	-14.0986
nviolable	-14.1028
sore	-14.1046
▁unwi	-14.106
▁lon	-14.1095
▁propert	-14.1119
▁mon	-14.1182
ulls	-14.1192
ehood	-14.122
▁gree	-14.1288
▁pillo	-14.1363
rave	-14.1406
lightness	-14.1419
inion	-14.1421
os	-14.1427
▁Dar	-14.1447
▁Liv	-14.1512
ends	-14.1553
louts	-14.1666
▁aske	-14.1676
straining	-14.1703
▁spa	-14.1711
▁z	-14.1725
unset	-14.1789
▁cau	-14.1808
▁Red	-14.1838
bjects	-14.1913
▁Thi	-14.195
trusted	-14.2034
eats	-14.2081
mes	-14.2164
▁quai	-14.218
▁expe	-14.2206
▁gir	-14.2212
ject	-14.2242
irs	-14.2311
hanks	-14.2363
ngles	-14.239
sity	-14.2445
▁cons	-14.2508
bri	-14.2584
cr	-14.2606
ispose	-14.2608
ator	-14.2608
ercy	-14.2632
rn	-14.2665
willingness	-14.2672
▁fea	-14.2684
lts	-14.2693
scour	-14.2744
▁Disse	-14.2876
putation	-14.2887
inister	-14.2893
cure	-14.2908
named	-14.2909
train	-14.3029
ec	-14.3119
▁Jer	-14.3149
hough	-14.3212
fit	-14.3227
Is	-14.3266
▁Lon	-14.3274
aying	-14.3274
uce	-14.3335
ained	-14.3356
bet	-14.3396
▁holi	-14.3431
ora	-14.3461
▁Tit	-14.3464
▁sadde	-14.3467
▁ent	-14.351
sever	-14.3539
▁bemo	-14.3601
lings	-14.3607
edi	-14.3614
oats	-14.3616
chment	-14.3662
sely	-14.3841
▁Ped	-14.3881
▁Partl	-14.4021
uses	-14.4042
▁cro	-14.4082
eputation	-14.412
rib	-14.4211
ift	-14.4285
▁impos	-14.4285
lieve	-14.4299
dest	-14.4316
▁bloods	-14.4347
losses	-14.4362
arded	-14.4409
▁travelle	-14.4415
▁undoubt	-14.4456
ighted	-14.4512
IL	-14.4546
oney	-14.4556
heads	-14.46
hers	-14.4648
▁hea	-14.4659
estern	-14.4669
▁mann	-14.4693
does	-14.4696
truth	-14.4769
gold	-14.4773
thre	-14.4799
scene	-14.4842
orous	-14.4889
pest	-14.498
▁Fe	-14.4989
eating	-14.4994
▁Bene	-14.5068
hipping	-14.5079
▁mist	-14.5097
nders	-14.5116
ker	-14.5131
sus	-14.5131
sa	-14.5223
generate	-14.5262
Se	-14.5285
▁em	-14.5331
gine	-14.538
nstruction	-14.5398
▁cozene	-14.5416
▁Li	-14.545
Q	-14.5452
J	-14.5453
move	-14.5454
q	-14.5454
